{
  "0": "<|endoftext|>",
  "1": "\u0000",
  "2": "\u0001",
  "3": "\u0002",
  "4": "\u0003",
  "5": "\u0004",
  "6": "\u0005",
  "7": "\u0006",
  "8": "\u0007",
  "9": "\b",
  "10": "\t",
  "11": "\n",
  "12": "\u000b",
  "13": "\f",
  "14": "\r",
  "15": "\u000e",
  "16": "\u000f",
  "17": "\u0010",
  "18": "\u0011",
  "19": "\u0012",
  "20": "\u0013",
  "21": "\u0014",
  "22": "\u0015",
  "23": "\u0016",
  "24": "\u0017",
  "25": "\u0018",
  "26": "\u0019",
  "27": "\u001a",
  "28": "\u001b",
  "29": "\u001c",
  "30": "\u001d",
  "31": "\u001e",
  "32": "\u001f",
  "33": " ",
  "34": "!",
  "35": "\"",
  "36": "#",
  "37": "$",
  "38": "%",
  "39": "&",
  "40": "'",
  "41": "(",
  "42": ")",
  "43": "*",
  "44": "+",
  "45": ",",
  "46": "-",
  "47": ".",
  "48": "/",
  "49": "0",
  "50": "1",
  "51": "2",
  "52": "3",
  "53": "4",
  "54": "5",
  "55": "6",
  "56": "7",
  "57": "8",
  "58": "9",
  "59": ":",
  "60": ";",
  "61": "<",
  "62": "=",
  "63": ">",
  "64": "?",
  "65": "@",
  "66": "A",
  "67": "B",
  "68": "C",
  "69": "D",
  "70": "E",
  "71": "F",
  "72": "G",
  "73": "H",
  "74": "I",
  "75": "J",
  "76": "K",
  "77": "L",
  "78": "M",
  "79": "N",
  "80": "O",
  "81": "P",
  "82": "Q",
  "83": "R",
  "84": "S",
  "85": "T",
  "86": "U",
  "87": "V",
  "88": "W",
  "89": "X",
  "90": "Y",
  "91": "Z",
  "92": "[",
  "93": "\\",
  "94": "]",
  "95": "^",
  "96": "_",
  "97": "`",
  "98": "a",
  "99": "b",
  "100": "c",
  "101": "d",
  "102": "e",
  "103": "f",
  "104": "g",
  "105": "h",
  "106": "i",
  "107": "j",
  "108": "k",
  "109": "l",
  "110": "m",
  "111": "n",
  "112": "o",
  "113": "p",
  "114": "q",
  "115": "r",
  "116": "s",
  "117": "t",
  "118": "u",
  "119": "v",
  "120": "w",
  "121": "x",
  "122": "y",
  "123": "z",
  "124": "{",
  "125": "|",
  "126": "}",
  "127": "~",
  "128": "\u007f",
  "129": "\u0080",
  "130": "\u0081",
  "131": "\u0082",
  "132": "\u0083",
  "133": "\u0084",
  "134": "\u0085",
  "135": "\u0086",
  "136": "\u0087",
  "137": "\u0088",
  "138": "\u0089",
  "139": "\u008a",
  "140": "\u008b",
  "141": "\u008c",
  "142": "\u008d",
  "143": "\u008e",
  "144": "\u008f",
  "145": "\u0090",
  "146": "\u0091",
  "147": "\u0092",
  "148": "\u0093",
  "149": "\u0094",
  "150": "\u0095",
  "151": "\u0096",
  "152": "\u0097",
  "153": "\u0098",
  "154": "\u0099",
  "155": "\u009a",
  "156": "\u009b",
  "157": "\u009c",
  "158": "\u009d",
  "159": "\u009e",
  "160": "\u009f",
  "161": "\u00a0",
  "162": "\u00a1",
  "163": "\u00a2",
  "164": "\u00a3",
  "165": "\u00a4",
  "166": "\u00a5",
  "167": "\u00a6",
  "168": "\u00a7",
  "169": "\u00a8",
  "170": "\u00a9",
  "171": "\u00aa",
  "172": "\u00ab",
  "173": "\u00ac",
  "174": "\u00ad",
  "175": "\u00ae",
  "176": "\u00af",
  "177": "\u00b0",
  "178": "\u00b1",
  "179": "\u00b2",
  "180": "\u00b3",
  "181": "\u00b4",
  "182": "\u00b5",
  "183": "\u00b6",
  "184": "\u00b7",
  "185": "\u00b8",
  "186": "\u00b9",
  "187": "\u00ba",
  "188": "\u00bb",
  "189": "\u00bc",
  "190": "\u00bd",
  "191": "\u00be",
  "192": "\u00bf",
  "193": "\u00c0",
  "194": "\u00c1",
  "195": "\u00c2",
  "196": "\u00c3",
  "197": "\u00c4",
  "198": "\u00c5",
  "199": "\u00c6",
  "200": "\u00c7",
  "201": "\u00c8",
  "202": "\u00c9",
  "203": "\u00ca",
  "204": "\u00cb",
  "205": "\u00cc",
  "206": "\u00cd",
  "207": "\u00ce",
  "208": "\u00cf",
  "209": "\u00d0",
  "210": "\u00d1",
  "211": "\u00d2",
  "212": "\u00d3",
  "213": "\u00d4",
  "214": "\u00d5",
  "215": "\u00d6",
  "216": "\u00d7",
  "217": "\u00d8",
  "218": "\u00d9",
  "219": "\u00da",
  "220": "\u00db",
  "221": "\u00dc",
  "222": "\u00dd",
  "223": "\u00de",
  "224": "\u00df",
  "225": "\u00e0",
  "226": "\u00e1",
  "227": "\u00e2",
  "228": "\u00e3",
  "229": "\u00e4",
  "230": "\u00e5",
  "231": "\u00e6",
  "232": "\u00e7",
  "233": "\u00e8",
  "234": "\u00e9",
  "235": "\u00ea",
  "236": "\u00eb",
  "237": "\u00ec",
  "238": "\u00ed",
  "239": "\u00ee",
  "240": "\u00ef",
  "241": "\u00f0",
  "242": "\u00f1",
  "243": "\u00f2",
  "244": "\u00f3",
  "245": "\u00f4",
  "246": "\u00f5",
  "247": "\u00f6",
  "248": "\u00f7",
  "249": "\u00f8",
  "250": "\u00f9",
  "251": "\u00fa",
  "252": "\u00fb",
  "253": "\u00fc",
  "254": "\u00fd",
  "255": "\u00fe",
  "256": "\u00ff",
  "257": " t",
  "258": "he",
  "259": " a",
  "260": " s",
  "261": " w",
  "262": "nd",
  "263": " the",
  "264": " b",
  "265": " to",
  "266": " and",
  "267": "re",
  "268": " f",
  "269": " T",
  "270": " wa",
  "271": "it",
  "272": "ha",
  "273": " l",
  "274": " d",
  "275": " c",
  "276": " p",
  "277": " m",
  "278": " was",
  "279": "ve",
  "280": " The",
  "281": " o",
  "282": " he",
  "283": " sa",
  "284": "ne",
  "285": "is",
  "286": "ng",
  "287": "im",
  "288": "id",
  "289": " ha",
  "290": "ke",
  "291": " g",
  "292": " S",
  "293": "ing",
  "294": "nt",
  "295": "il",
  "296": "ut",
  "297": " ca",
  "298": "ro",
  "299": "ry",
  "300": "He",
  "301": " it",
  "302": "ho",
  "303": "ig",
  "304": " They",
  "305": "ie",
  "306": " da",
  "307": " He",
  "308": "no",
  "309": " pl",
  "310": " be",
  "311": " pla",
  "312": " \"",
  "313": " we",
  "314": " lo",
  "315": "his",
  "316": " so",
  "317": " fo",
  "318": " said",
  "319": " play",
  "320": " wit",
  "321": "ra",
  "322": " day",
  "323": " y",
  "324": " with",
  "325": "ked",
  "326": " mo",
  "327": " e",
  "328": "rie",
  "329": " no",
  "330": "ul",
  "331": " I",
  "332": " She",
  "333": " Tim",
  "334": " his",
  "335": " st",
  "336": " do",
  "337": " ma",
  "338": "us",
  "339": " big",
  "340": " yo",
  "341": " you",
  "342": "very",
  "343": "rd",
  "344": "na",
  "345": " co",
  "346": " ba",
  "347": "up",
  "348": " hap",
  "349": " happ",
  "350": " bo",
  "351": "riend",
  "352": " friend",
  "353": "ic",
  "354": "ily",
  "355": " L",
  "356": " they",
  "357": " tha",
  "358": " had",
  "359": " not",
  "360": "ug",
  "361": " up",
  "362": " want",
  "363": " of",
  "364": "nc",
  "365": " B",
  "366": " go",
  "367": " ho",
  "368": " happy",
  "369": "und",
  "370": " very",
  "371": " al",
  "372": " M",
  "373": " that",
  "374": " saw",
  "375": "One",
  "376": "'s",
  "377": "uld",
  "378": " mom",
  "379": " lit",
  "380": " na",
  "381": " litt",
  "382": " littl",
  "383": " little",
  "384": "ide",
  "385": " she",
  "386": " ne",
  "387": "rt",
  "388": "nce",
  "389": " tim",
  "390": " time",
  "391": " nam",
  "392": " name",
  "393": ".\"",
  "394": " there",
  "395": " wo",
  "396": " named",
  "397": "ny",
  "398": " sm",
  "399": " pa",
  "400": " were",
  "401": " To",
  "402": " Lily",
  "403": "red",
  "404": " wante",
  "405": " wanted",
  "406": " but",
  "407": " friends",
  "408": "ht",
  "409": "ved",
  "410": "!\"",
  "411": " Tom",
  "412": "ird",
  "413": " hel",
  "414": "uc",
  "415": " bird",
  "416": "ue",
  "417": "ree",
  "418": "hing",
  "419": " too",
  "420": " It",
  "421": "rs",
  "422": " went",
  "423": "Once",
  "424": " is",
  "425": " all",
  "426": " help",
  "427": " fe",
  "428": "use",
  "429": " loo",
  "430": " le",
  "431": " A",
  "432": " upo",
  "433": " upon",
  "434": " se",
  "435": " fa",
  "436": "ill",
  "437": "ind",
  "438": " toy",
  "439": " as",
  "440": " at",
  "441": " j",
  "442": " did",
  "443": "ile",
  "444": " som",
  "445": " some",
  "446": " sta",
  "447": " tog",
  "448": " toge",
  "449": " toget",
  "450": " togethe",
  "451": " together",
  "452": "rl",
  "453": " cl",
  "454": " ra",
  "455": " cat",
  "456": " me",
  "457": " ta",
  "458": "ns",
  "459": " ro",
  "460": " dog",
  "461": " could",
  "462": " Sa",
  "463": " bal",
  "464": " thei",
  "465": " their",
  "466": " la",
  "467": " fl",
  "468": "him",
  "469": " playe",
  "470": "irl",
  "471": " played",
  "472": " him",
  "473": " tree",
  "474": " ball",
  "475": "?\"",
  "476": " girl",
  "477": "ud",
  "478": "ia",
  "479": " Ma",
  "480": " are",
  "481": " out",
  "482": "um",
  "483": " them",
  "484": "'t",
  "485": " sad",
  "486": " boy",
  "487": " see",
  "488": " have",
  "489": " sho",
  "490": " loved",
  "491": " looked",
  "492": " sc",
  "493": " fel",
  "494": " found",
  "495": " sp",
  "496": " ga",
  "497": "ful",
  "498": " Sue",
  "499": " smile",
  "500": " bac",
  "501": " back",
  "502": "ice",
  "503": " fro",
  "504": "ught",
  "505": " Be",
  "506": " Max",
  "507": " lea",
  "508": " ea",
  "509": " bec",
  "510": "ight",
  "511": " beca",
  "512": " sto",
  "513": " start",
  "514": " de",
  "515": " One",
  "516": "iked",
  "517": " liked",
  "518": " would",
  "519": " make",
  "520": "Yo",
  "521": " felt",
  "522": "You",
  "523": "thing",
  "524": " cam",
  "525": " W",
  "526": " sma",
  "527": " But",
  "528": " asked",
  "529": "res",
  "530": " came",
  "531": " new",
  "532": " Sam",
  "533": " starte",
  "534": " started",
  "535": " Ben",
  "536": " ot",
  "537": " sca",
  "538": " whe",
  "539": " othe",
  "540": " goo",
  "541": "int",
  "542": " ag",
  "543": " good",
  "544": " smal",
  "545": " small",
  "546": " wal",
  "547": " wat",
  "548": " smiled",
  "549": " say",
  "550": "ried",
  "551": " po",
  "552": " mad",
  "553": " hea",
  "554": " tho",
  "555": " pe",
  "556": " sha",
  "557": " wha",
  "558": " thing",
  "559": "io",
  "560": " aw",
  "561": " find",
  "562": " ex",
  "563": " awa",
  "564": " hom",
  "565": " home",
  "566": " away",
  "567": " put",
  "568": " what",
  "569": " something",
  "570": " from",
  "571": " made",
  "572": " thought",
  "573": " Sp",
  "574": " ge",
  "575": " playing",
  "576": "rry",
  "577": " bea",
  "578": " bl",
  "579": " every",
  "580": " other",
  "581": " Spo",
  "582": " Spot",
  "583": " F",
  "584": "rm",
  "585": " J",
  "586": " aga",
  "587": " agai",
  "588": "ived",
  "589": "ret",
  "590": " house",
  "591": " again",
  "592": " dow",
  "593": " down",
  "594": " took",
  "595": " scared",
  "596": " lear",
  "597": "ust",
  "598": "kno",
  "599": " toys",
  "600": " You",
  "601": " will",
  "602": " box",
  "603": "ick",
  "604": " look",
  "605": " my",
  "606": " aro",
  "607": " around",
  "608": " things",
  "609": " kno",
  "610": "rp",
  "611": " lived",
  "612": " then",
  "613": " sw",
  "614": ",\"",
  "615": " when",
  "616": " clo",
  "617": " ab",
  "618": " te",
  "619": " Mia",
  "620": " com",
  "621": " get",
  "622": "Tim",
  "623": "uck",
  "624": "ucy",
  "625": "ump",
  "626": " lot",
  "627": " know",
  "628": " tried",
  "629": " says",
  "630": " got",
  "631": " who",
  "632": " bot",
  "633": " sl",
  "634": " many",
  "635": " abo",
  "636": " int",
  "637": " So",
  "638": " about",
  "639": " pret",
  "640": " dec",
  "641": " any",
  "642": " red",
  "643": " D",
  "644": "ine",
  "645": " Bo",
  "646": " flo",
  "647": " more",
  "648": "bb",
  "649": "nside",
  "650": " Mo",
  "651": " roo",
  "652": "hug",
  "653": " hug",
  "654": " Lucy",
  "655": " learne",
  "656": " learned",
  "657": " wate",
  "658": " bes",
  "659": " pro",
  "660": " becam",
  "661": " became",
  "662": " decide",
  "663": " best",
  "664": " op",
  "665": " fee",
  "666": " water",
  "667": " exc",
  "668": "urp",
  "669": " than",
  "670": "\u00e2\u0080",
  "671": "ughe",
  "672": " gra",
  "673": "ughed",
  "674": " outs",
  "675": " outside",
  "676": " laughed",
  "677": " ope",
  "678": "Tha",
  "679": " alw",
  "680": " alwa",
  "681": " alway",
  "682": " always",
  "683": " excit",
  "684": " show",
  "685": " col",
  "686": "ip",
  "687": " room",
  "688": " decided",
  "689": " because",
  "690": " into",
  "691": " eat",
  "692": " one",
  "693": "No",
  "694": " jump",
  "695": " And",
  "696": " both",
  "697": "ris",
  "698": "udd",
  "699": " excite",
  "700": " Mom",
  "701": " dad",
  "702": " bro",
  "703": " ke",
  "704": " fas",
  "705": "Ye",
  "706": "nice",
  "707": "rise",
  "708": " nice",
  "709": " this",
  "710": " excited",
  "711": " fast",
  "712": " E",
  "713": "Yes",
  "714": "Ca",
  "715": " feel",
  "716": " long",
  "717": " tal",
  "718": " gro",
  "719": " tol",
  "720": " told",
  "721": " am",
  "722": " take",
  "723": "unt",
  "724": "urprise",
  "725": "inside",
  "726": " inside",
  "727": "hy",
  "728": " prett",
  "729": " spe",
  "730": " surprise",
  "731": "His",
  "732": "iny",
  "733": "rest",
  "734": " pretty",
  "735": "unde",
  "736": " happe",
  "737": "nna",
  "738": " foo",
  "739": "ning",
  "740": " roc",
  "741": " eac",
  "742": " each",
  "743": " gave",
  "744": " muc",
  "745": " much",
  "746": " how",
  "747": "nim",
  "748": "nima",
  "749": "nimal",
  "750": " animal",
  "751": " nee",
  "752": " need",
  "753": " ol",
  "754": " tow",
  "755": " jo",
  "756": " unde",
  "757": "reful",
  "758": " careful",
  "759": " fis",
  "760": " let",
  "761": " old",
  "762": " sorry",
  "763": " walk",
  "764": "Can",
  "765": "vo",
  "766": "urt",
  "767": " rock",
  "768": " cle",
  "769": " We",
  "770": " fish",
  "771": " walked",
  "772": "ze",
  "773": " hand",
  "774": " nea",
  "775": " fle",
  "776": "kind",
  "777": " kind",
  "778": " bear",
  "779": " His",
  "780": "rel",
  "781": " stop",
  "782": " flow",
  "783": " happene",
  "784": " happened",
  "785": " just",
  "786": " use",
  "787": " food",
  "788": " lis",
  "789": " list",
  "790": " bet",
  "791": " flowe",
  "792": " its",
  "793": " didn",
  "794": " animals",
  "795": "hig",
  "796": " liste",
  "797": " hig",
  "798": " ye",
  "799": " watc",
  "800": " ide",
  "801": " idea",
  "802": " try",
  "803": " near",
  "804": "ving",
  "805": " Am",
  "806": "right",
  "807": " clos",
  "808": " close",
  "809": " come",
  "810": " bett",
  "811": " bette",
  "812": " better",
  "813": " bra",
  "814": " Amy",
  "815": " bug",
  "816": " heard",
  "817": "ngry",
  "818": " clea",
  "819": " tw",
  "820": " cha",
  "821": " ove",
  "822": "icked",
  "823": "cia",
  "824": " boo",
  "825": "cial",
  "826": " hol",
  "827": " share",
  "828": "Than",
  "829": "Thank",
  "830": " af",
  "831": " fly",
  "832": "ves",
  "833": " flew",
  "834": " anym",
  "835": " anymo",
  "836": " anymore",
  "837": " saf",
  "838": " cal",
  "839": " special",
  "840": " q",
  "841": "hile",
  "842": " lots",
  "843": " Ja",
  "844": " neve",
  "845": " never",
  "846": " by",
  "847": " coo",
  "848": " safe",
  "849": "ious",
  "850": " wind",
  "851": " gam",
  "852": " game",
  "853": " wis",
  "854": " end",
  "855": "\n\n",
  "856": "une",
  "857": " che",
  "858": "rst",
  "859": " mag",
  "860": " hard",
  "861": "hiny",
  "862": " shiny",
  "863": "udde",
  "864": "udden",
  "865": " over",
  "866": " cake",
  "867": " under",
  "868": " book",
  "869": " colo",
  "870": " fam",
  "871": " bad",
  "872": " aft",
  "873": " afte",
  "874": " after",
  "875": " Anna",
  "876": "uddenl",
  "877": "uddenly",
  "878": " peo",
  "879": " peop",
  "880": " peopl",
  "881": " people",
  "882": " proud",
  "883": " Every",
  "884": " surprised",
  "885": " high",
  "886": "hurt",
  "887": " hurt",
  "888": " Fro",
  "889": " doo",
  "890": " gard",
  "891": " garde",
  "892": " opene",
  "893": " opened",
  "894": " picked",
  "895": " ground",
  "896": " loud",
  "897": "umm",
  "898": " clim",
  "899": " climb",
  "900": " gl",
  "901": " une",
  "902": " unex",
  "903": " unexp",
  "904": " unexpe",
  "905": " unexpec",
  "906": " unexpect",
  "907": " unexpecte",
  "908": " unexpected",
  "909": " garden",
  "910": " Whe",
  "911": " mea",
  "912": "ild",
  "913": " im",
  "914": " way",
  "915": " hugg",
  "916": "uf",
  "917": "'m",
  "918": " thanked",
  "919": "ix",
  "920": "uff",
  "921": " blue",
  "922": " nois",
  "923": " still",
  "924": " door",
  "925": " hugge",
  "926": " hugged",
  "927": " From",
  "928": " call",
  "929": " Le",
  "930": " Sara",
  "931": " sq",
  "932": " tra",
  "933": " off",
  "934": " ow",
  "935": " magic",
  "936": "ummy",
  "937": " wait",
  "938": " boa",
  "939": " K",
  "940": "rse",
  "941": " hop",
  "942": " jumpe",
  "943": " plac",
  "944": " place",
  "945": " jumped",
  "946": " ap",
  "947": " When",
  "948": " dra",
  "949": " should",
  "950": "irt",
  "951": " family",
  "952": " Da",
  "953": "kid",
  "954": " kid",
  "955": " cra",
  "956": " ad",
  "957": "rem",
  "958": " clean",
  "959": "ina",
  "960": " stro",
  "961": " now",
  "962": " qu",
  "963": " strong",
  "964": " stay",
  "965": " bee",
  "966": "ict",
  "967": " unt",
  "968": " helpe",
  "969": " tea",
  "970": " forest",
  "971": " P",
  "972": " noise",
  "973": " frog",
  "974": " showe",
  "975": " until",
  "976": " beaut",
  "977": " los",
  "978": " squ",
  "979": " nex",
  "980": " next",
  "981": " boat",
  "982": "rit",
  "983": " Do",
  "984": " exp",
  "985": "rful",
  "986": "ress",
  "987": " happily",
  "988": "hro",
  "989": "iful",
  "990": " beautiful",
  "991": " kids",
  "992": " dis",
  "993": " app",
  "994": " helped",
  "995": " showed",
  "996": " imp",
  "997": " story",
  "998": " nod",
  "999": " sea",
  "1000": " talk",
  "1001": " while",
  "1002": "rrel",
  "1003": " town",
  "1004": "rked",
  "1005": "ictu",
  "1006": " pictu",
  "1007": " hat",
  "1008": " sof",
  "1009": " dol",
  "1010": " being",
  "1011": " rem",
  "1012": " everyo",
  "1013": " everyone",
  "1014": " blo",
  "1015": " calle",
  "1016": " called",
  "1017": " stopp",
  "1018": " broke",
  "1019": "rent",
  "1020": " met",
  "1021": " stoppe",
  "1022": " stopped",
  "1023": " listen",
  "1024": "ruck",
  "1025": " stick",
  "1026": " dance",
  "1027": "Now",
  "1028": " part",
  "1029": " butt",
  "1030": " angry",
  "1031": "uffy",
  "1032": " soft",
  "1033": " ya",
  "1034": " gree",
  "1035": " kee",
  "1036": " truck",
  "1037": " keep",
  "1038": " cry",
  "1039": " yummy",
  "1040": " lost",
  "1041": " Sal",
  "1042": " bed",
  "1043": "vent",
  "1044": "rious",
  "1045": " Let",
  "1046": "rite",
  "1047": " Sall",
  "1048": " Sally",
  "1049": " warm",
  "1050": " spo",
  "1051": " Kit",
  "1052": " slide",
  "1053": " cla",
  "1054": " mouse",
  "1055": " ate",
  "1056": " Kitt",
  "1057": " Kitty",
  "1058": " hole",
  "1059": " doll",
  "1060": " couldn",
  "1061": " bit",
  "1062": " bel",
  "1063": " als",
  "1064": " also",
  "1065": " fell",
  "1066": " green",
  "1067": " two",
  "1068": "bbit",
  "1069": " flowers",
  "1070": " R",
  "1071": "rro",
  "1072": " wea",
  "1073": "irst",
  "1074": " where",
  "1075": " soo",
  "1076": " ask",
  "1077": " fol",
  "1078": " soon",
  "1079": " rac",
  "1080": " rabbit",
  "1081": "luffy",
  "1082": " bef",
  "1083": " befo",
  "1084": " before",
  "1085": "irrel",
  "1086": " pus",
  "1087": "ries",
  "1088": "ired",
  "1089": " sat",
  "1090": "ventu",
  "1091": "rep",
  "1092": "\u00e2\u0080\u009d",
  "1093": " kep",
  "1094": " kept",
  "1095": "\u00e2\u0080\u009c",
  "1096": " nodd",
  "1097": "That",
  "1098": " squirrel",
  "1099": " nodde",
  "1100": " nodded",
  "1101": " touc",
  "1102": " sing",
  "1103": " expl",
  "1104": " swing",
  "1105": " hands",
  "1106": "zed",
  "1107": " cook",
  "1108": " birds",
  "1109": " catc",
  "1110": " race",
  "1111": " going",
  "1112": " appl",
  "1113": "nst",
  "1114": " having",
  "1115": "va",
  "1116": " yel",
  "1117": " ey",
  "1118": " eye",
  "1119": " tel",
  "1120": " Fluffy",
  "1121": " Can",
  "1122": " yell",
  "1123": " el",
  "1124": " fix",
  "1125": "inal",
  "1126": " Tha",
  "1127": " tired",
  "1128": " used",
  "1129": " thro",
  "1130": " sit",
  "1131": " looking",
  "1132": " sle",
  "1133": " Jo",
  "1134": " lad",
  "1135": "night",
  "1136": " pul",
  "1137": " pull",
  "1138": " catch",
  "1139": " pie",
  "1140": " Now",
  "1141": "hit",
  "1142": " apple",
  "1143": " has",
  "1144": " pond",
  "1145": " G",
  "1146": " mis",
  "1147": " others",
  "1148": " sna",
  "1149": " reme",
  "1150": " remem",
  "1151": " rememb",
  "1152": " remembe",
  "1153": " watch",
  "1154": " impo",
  "1155": " momm",
  "1156": " head",
  "1157": " agree",
  "1158": " first",
  "1159": " mes",
  "1160": " mommy",
  "1161": " eyes",
  "1162": " vo",
  "1163": " import",
  "1164": " importa",
  "1165": " favo",
  "1166": " swe",
  "1167": " dress",
  "1168": " mess",
  "1169": " beg",
  "1170": " right",
  "1171": " flower",
  "1172": " party",
  "1173": " cold",
  "1174": " sand",
  "1175": " \u00e2\u0080\u009c",
  "1176": " Jac",
  "1177": " important",
  "1178": " ple",
  "1179": " duck",
  "1180": " paint",
  "1181": " mora",
  "1182": " moral",
  "1183": " shared",
  "1184": " ac",
  "1185": "ipp",
  "1186": "zy",
  "1187": "urious",
  "1188": " bla",
  "1189": " Jack",
  "1190": " ice",
  "1191": " plea",
  "1192": " adventu",
  "1193": " ste",
  "1194": " worked",
  "1195": " bright",
  "1196": " mak",
  "1197": " making",
  "1198": " curious",
  "1199": " pleas",
  "1200": " rep",
  "1201": " woo",
  "1202": "nste",
  "1203": " tall",
  "1204": " dirt",
  "1205": " mean",
  "1206": " watche",
  "1207": "hill",
  "1208": " slee",
  "1209": " please",
  "1210": "inall",
  "1211": "inally",
  "1212": " favorite",
  "1213": " chee",
  "1214": " sleep",
  "1215": "nning",
  "1216": " bega",
  "1217": " began",
  "1218": " bag",
  "1219": " Al",
  "1220": " hill",
  "1221": " draw",
  "1222": " rest",
  "1223": " here",
  "1224": " yard",
  "1225": " tas",
  "1226": " floo",
  "1227": " tell",
  "1228": " learn",
  "1229": "hind",
  "1230": " je",
  "1231": " watched",
  "1232": " foll",
  "1233": " follo",
  "1234": " follow",
  "1235": " explo",
  "1236": " wel",
  "1237": " bloc",
  "1238": " gla",
  "1239": " cut",
  "1240": " night",
  "1241": " agreed",
  "1242": " pick",
  "1243": " block",
  "1244": " pap",
  "1245": " behind",
  "1246": " pape",
  "1247": " This",
  "1248": " hot",
  "1249": " gras",
  "1250": " grass",
  "1251": " worry",
  "1252": " trees",
  "1253": " top",
  "1254": " voice",
  "1255": " walking",
  "1256": "ubb",
  "1257": " clot",
  "1258": " farm",
  "1259": " lio",
  "1260": " swee",
  "1261": " feeling",
  "1262": " song",
  "1263": " butte",
  "1264": " tail",
  "1265": " floor",
  "1266": " butter",
  "1267": " sweet",
  "1268": " shout",
  "1269": " colors",
  "1270": " Dad",
  "1271": " lady",
  "1272": " clap",
  "1273": " leaves",
  "1274": " ja",
  "1275": " closer",
  "1276": " cars",
  "1277": " neede",
  "1278": " needed",
  "1279": " tast",
  "1280": "Why",
  "1281": " wood",
  "1282": " cried",
  "1283": "ined",
  "1284": "ila",
  "1285": "erent",
  "1286": "ferent",
  "1287": "fferent",
  "1288": "ifferent",
  "1289": " grow",
  "1290": " different",
  "1291": " pat",
  "1292": " picture",
  "1293": " del",
  "1294": " piec",
  "1295": " bow",
  "1296": " piece",
  "1297": "\u00e2\u0080\u0099",
  "1298": " rol",
  "1299": " roll",
  "1300": " doe",
  "1301": " does",
  "1302": " towe",
  "1303": "ungry",
  "1304": "hungry",
  "1305": " hungry",
  "1306": " Suddenly",
  "1307": " swa",
  "1308": " ful",
  "1309": " paper",
  "1310": " yello",
  "1311": " yellow",
  "1312": " full",
  "1313": "Sue",
  "1314": "Anna",
  "1315": " lion",
  "1316": " As",
  "1317": " alo",
  "1318": " wet",
  "1319": " friendl",
  "1320": " dro",
  "1321": " friendly",
  "1322": " pas",
  "1323": " broken",
  "1324": " wishe",
  "1325": " va",
  "1326": " touch",
  "1327": " prom",
  "1328": " That",
  "1329": " promis",
  "1330": " ano",
  "1331": " anot",
  "1332": " anothe",
  "1333": " another",
  "1334": " climbe",
  "1335": " light",
  "1336": " prete",
  "1337": " pretend",
  "1338": " promise",
  "1339": " listene",
  "1340": " cookie",
  "1341": " climbed",
  "1342": " listened",
  "1343": " pushe",
  "1344": "unning",
  "1345": "running",
  "1346": " running",
  "1347": " gone",
  "1348": " swim",
  "1349": " repl",
  "1350": " Jane",
  "1351": "Suddenly",
  "1352": " All",
  "1353": " sme",
  "1354": " mat",
  "1355": " trai",
  "1356": " smel",
  "1357": " pea",
  "1358": " dee",
  "1359": "rried",
  "1360": " smell",
  "1361": " chai",
  "1362": " ama",
  "1363": " stra",
  "1364": " wond",
  "1365": " hold",
  "1366": " wonde",
  "1367": " blocks",
  "1368": " Timm",
  "1369": " Timmy",
  "1370": "hide",
  "1371": " hide",
  "1372": " butterf",
  "1373": " butterfl",
  "1374": " sees",
  "1375": " slo",
  "1376": " wall",
  "1377": " bigg",
  "1378": " bigge",
  "1379": " helping",
  "1380": " slow",
  "1381": " cool",
  "1382": " goodb",
  "1383": " goodby",
  "1384": " goodbye",
  "1385": " glad",
  "1386": " ant",
  "1387": " les",
  "1388": " less",
  "1389": " been",
  "1390": "uy",
  "1391": " shel",
  "1392": " fight",
  "1393": " cas",
  "1394": "Mia",
  "1395": " pushed",
  "1396": " sno",
  "1397": " must",
  "1398": " hopp",
  "1399": "hild",
  "1400": " teac",
  "1401": " mome",
  "1402": " moment",
  "1403": " windo",
  "1404": " window",
  "1405": " wear",
  "1406": " wro",
  "1407": " ballo",
  "1408": " balloo",
  "1409": " snow",
  "1410": " child",
  "1411": " Everyo",
  "1412": " Everyone",
  "1413": " explore",
  "1414": " thank",
  "1415": " clapp",
  "1416": " wished",
  "1417": "icy",
  "1418": " done",
  "1419": " wag",
  "1420": " buy",
  "1421": " stuck",
  "1422": " roa",
  "1423": " might",
  "1424": "ized",
  "1425": " trying",
  "1426": " spa",
  "1427": " coming",
  "1428": " fal",
  "1429": " fall",
  "1430": " plant",
  "1431": " train",
  "1432": " quick",
  "1433": "uild",
  "1434": " notice",
  "1435": " scary",
  "1436": " looks",
  "1437": " build",
  "1438": " doing",
  "1439": " underst",
  "1440": " dirty",
  "1441": " hear",
  "1442": " held",
  "1443": "iving",
  "1444": " books",
  "1445": "vy",
  "1446": " butterfly",
  "1447": " lef",
  "1448": " left",
  "1449": "uddy",
  "1450": " hope",
  "1451": " wise",
  "1452": " replie",
  "1453": " shoute",
  "1454": " shouted",
  "1455": " count",
  "1456": " fla",
  "1457": " replied",
  "1458": "hree",
  "1459": "zo",
  "1460": " tiny",
  "1461": " throug",
  "1462": "Co",
  "1463": " comp",
  "1464": " Je",
  "1465": " ble",
  "1466": " why",
  "1467": " branc",
  "1468": " land",
  "1469": " three",
  "1470": " spl",
  "1471": " pulle",
  "1472": "nut",
  "1473": " pulled",
  "1474": " through",
  "1475": " brot",
  "1476": " brothe",
  "1477": "ippe",
  "1478": " mot",
  "1479": " woods",
  "1480": " pol",
  "1481": "'re",
  "1482": " seen",
  "1483": " clappe",
  "1484": " clapped",
  "1485": " cup",
  "1486": " owl",
  "1487": " fill",
  "1488": " cloud",
  "1489": " swam",
  "1490": " grabb",
  "1491": " job",
  "1492": " colorful",
  "1493": " remembered",
  "1494": " bigger",
  "1495": " nes",
  "1496": " nest",
  "1497": " mout",
  "1498": " mouth",
  "1499": " fie",
  "1500": " glo",
  "1501": " lesso",
  "1502": "ride",
  "1503": "Oh",
  "1504": " There",
  "1505": " waite",
  "1506": "icke",
  "1507": " waved",
  "1508": " grabbe",
  "1509": " grabbed",
  "1510": " staye",
  "1511": " stayed",
  "1512": "This",
  "1513": " lesson",
  "1514": " cont",
  "1515": " clothe",
  "1516": " clothes",
  "1517": " Af",
  "1518": " wing",
  "1519": " Aft",
  "1520": " Afte",
  "1521": " After",
  "1522": " waited",
  "1523": " ce",
  "1524": " quickl",
  "1525": " quickly",
  "1526": "urse",
  "1527": " word",
  "1528": " miss",
  "1529": " cand",
  "1530": " Momm",
  "1531": "vis",
  "1532": " games",
  "1533": " cast",
  "1534": " cro",
  "1535": "ince",
  "1536": " blew",
  "1537": " gent",
  "1538": " gentl",
  "1539": " Mommy",
  "1540": " noticed",
  "1541": " cho",
  "1542": " Re",
  "1543": " set",
  "1544": " pictures",
  "1545": " faste",
  "1546": "iry",
  "1547": " ride",
  "1548": " heavy",
  "1549": " castl",
  "1550": " castle",
  "1551": " alone",
  "1552": " anything",
  "1553": " spot",
  "1554": " eno",
  "1555": " hoppe",
  "1556": " adventure",
  "1557": " grand",
  "1558": "rld",
  "1559": " hopped",
  "1560": " world",
  "1561": " yea",
  "1562": " bott",
  "1563": " pot",
  "1564": " arm",
  "1565": " chair",
  "1566": "Ho",
  "1567": " mix",
  "1568": " tight",
  "1569": " shoe",
  "1570": " des",
  "1571": " everyw",
  "1572": " everywhe",
  "1573": " everywhere",
  "1574": "Lucy",
  "1575": " won",
  "1576": " tower",
  "1577": " nos",
  "1578": " lat",
  "1579": " late",
  "1580": " hims",
  "1581": " himse",
  "1582": " himsel",
  "1583": " himself",
  "1584": " whis",
  "1585": "thy",
  "1586": " followe",
  "1587": " followed",
  "1588": " Buddy",
  "1589": " rel",
  "1590": "zoo",
  "1591": "hite",
  "1592": " sec",
  "1593": " nap",
  "1594": " key",
  "1595": "uddl",
  "1596": "rning",
  "1597": " brother",
  "1598": " white",
  "1599": " Wha",
  "1600": " zoo",
  "1601": " wrong",
  "1602": " Dais",
  "1603": " makes",
  "1604": " Daisy",
  "1605": " hit",
  "1606": " spla",
  "1607": "rince",
  "1608": " What",
  "1609": " strang",
  "1610": " strange",
  "1611": " chas",
  "1612": " splas",
  "1613": "usic",
  "1614": " blac",
  "1615": " black",
  "1616": " monste",
  "1617": " deep",
  "1618": " music",
  "1619": " hone",
  "1620": " delic",
  "1621": " own",
  "1622": "ued",
  "1623": "uddle",
  "1624": " parent",
  "1625": " drop",
  "1626": "zing",
  "1627": " stone",
  "1628": " em",
  "1629": " step",
  "1630": "rrow",
  "1631": " quie",
  "1632": " quiet",
  "1633": " side",
  "1634": " danced",
  "1635": " prince",
  "1636": " vis",
  "1637": " Joh",
  "1638": " wants",
  "1639": " balloon",
  "1640": " leaf",
  "1641": "Com",
  "1642": " visit",
  "1643": " monster",
  "1644": " plane",
  "1645": " understa",
  "1646": " understand",
  "1647": " bowl",
  "1648": " bas",
  "1649": " smart",
  "1650": " John",
  "1651": " May",
  "1652": "Come",
  "1653": "rrot",
  "1654": " talked",
  "1655": " shoo",
  "1656": " dry",
  "1657": " faster",
  "1658": " cookies",
  "1659": " brought",
  "1660": " leg",
  "1661": " fea",
  "1662": " Inside",
  "1663": " coa",
  "1664": " bite",
  "1665": " Bill",
  "1666": "iding",
  "1667": " rocks",
  "1668": " someo",
  "1669": " someone",
  "1670": " point",
  "1671": " taste",
  "1672": " fox",
  "1673": " well",
  "1674": " shap",
  "1675": " butto",
  "1676": " branch",
  "1677": " Lila",
  "1678": " shape",
  "1679": "za",
  "1680": "ipped",
  "1681": " ora",
  "1682": " orang",
  "1683": " orange",
  "1684": " sis",
  "1685": " tro",
  "1686": " joi",
  "1687": " sist",
  "1688": " siste",
  "1689": " scre",
  "1690": " flying",
  "1691": " worried",
  "1692": " conti",
  "1693": " contin",
  "1694": " tod",
  "1695": " ele",
  "1696": " beac",
  "1697": " que",
  "1698": " sill",
  "1699": " Mayb",
  "1700": " Maybe",
  "1701": " beach",
  "1702": " secret",
  "1703": " chase",
  "1704": " dang",
  "1705": " lett",
  "1706": " Sarah",
  "1707": " dange",
  "1708": " free",
  "1709": " toda",
  "1710": " today",
  "1711": " Joe",
  "1712": " everything",
  "1713": " silly",
  "1714": " join",
  "1715": " pop",
  "1716": " childre",
  "1717": " children",
  "1718": " wagg",
  "1719": " Soo",
  "1720": " Soon",
  "1721": " fiel",
  "1722": " field",
  "1723": " fille",
  "1724": " filled",
  "1725": " els",
  "1726": " else",
  "1727": "OK",
  "1728": " smiles",
  "1729": " welc",
  "1730": " welco",
  "1731": " welcom",
  "1732": " At",
  "1733": " yes",
  "1734": " wish",
  "1735": " Em",
  "1736": " sang",
  "1737": "While",
  "1738": " snac",
  "1739": " snack",
  "1740": "lized",
  "1741": " eating",
  "1742": "alized",
  "1743": "realized",
  "1744": " realized",
  "1745": " pieces",
  "1746": " promised",
  "1747": "una",
  "1748": " welcome",
  "1749": " pow",
  "1750": " puddle",
  "1751": " pig",
  "1752": " owne",
  "1753": " continued",
  "1754": " sister",
  "1755": " pup",
  "1756": " soa",
  "1757": "rip",
  "1758": " parents",
  "1759": " carefull",
  "1760": " carefully",
  "1761": " bottl",
  "1762": " bottle",
  "1763": "Just",
  "1764": " highe",
  "1765": " pra",
  "1766": " grandm",
  "1767": " cow",
  "1768": " blan",
  "1769": " drag",
  "1770": "nstea",
  "1771": "nstead",
  "1772": " throw",
  "1773": " sel",
  "1774": " chang",
  "1775": " rolle",
  "1776": " mos",
  "1777": " crying",
  "1778": " Gra",
  "1779": " blanke",
  "1780": " blanket",
  "1781": " enoug",
  "1782": " enough",
  "1783": " Pe",
  "1784": " rolled",
  "1785": " soup",
  "1786": " jar",
  "1787": " shop",
  "1788": " purp",
  "1789": "rust",
  "1790": "ughing",
  "1791": " poo",
  "1792": " snake",
  "1793": "iant",
  "1794": " pet",
  "1795": " crab",
  "1796": " laughing",
  "1797": " fairy",
  "1798": " change",
  "1799": " sol",
  "1800": " words",
  "1801": "irp",
  "1802": " amazing",
  "1803": " purpl",
  "1804": " purple",
  "1805": "rries",
  "1806": " peac",
  "1807": " Z",
  "1808": " witho",
  "1809": " without",
  "1810": " doc",
  "1811": " belo",
  "1812": " grandma",
  "1813": " Billy",
  "1814": " past",
  "1815": " mone",
  "1816": " money",
  "1817": "rump",
  "1818": " mail",
  "1819": " barked",
  "1820": " wagge",
  "1821": " wagged",
  "1822": " brow",
  "1823": " att",
  "1824": " doct",
  "1825": " docto",
  "1826": " moved",
  "1827": " brown",
  "1828": " asks",
  "1829": " twi",
  "1830": " gett",
  "1831": " getting",
  "1832": " closed",
  "1833": " morning",
  "1834": " candy",
  "1835": " scho",
  "1836": " schoo",
  "1837": " school",
  "1838": " owner",
  "1839": " drago",
  "1840": " lone",
  "1841": " lonel",
  "1842": " gat",
  "1843": "rick",
  "1844": " mothe",
  "1845": " smo",
  "1846": " higher",
  "1847": " sitt",
  "1848": " sitting",
  "1849": ".\u00e2\u0080\u009d",
  "1850": "!\u00e2\u0080\u009d",
  "1851": " mother",
  "1852": " tie",
  "1853": " dangero",
  "1854": " dangerous",
  "1855": " lonely",
  "1856": " remember",
  "1857": " coi",
  "1858": " living",
  "1859": " apples",
  "1860": " road",
  "1861": "ula",
  "1862": " Tomm",
  "1863": " Tommy",
  "1864": " nose",
  "1865": " paw",
  "1866": " pass",
  "1867": " shoes",
  "1868": " inte",
  "1869": " doctor",
  "1870": " -",
  "1871": " talking",
  "1872": "lthy",
  "1873": " caught",
  "1874": " eg",
  "1875": " egg",
  "1876": " disa",
  "1877": " lake",
  "1878": " lette",
  "1879": " wings",
  "1880": "unce",
  "1881": " baske",
  "1882": " basket",
  "1883": " dragon",
  "1884": " farme",
  "1885": "ives",
  "1886": " Som",
  "1887": " Some",
  "1888": " stand",
  "1889": " delicious",
  "1890": " cel",
  "1891": " tom",
  "1892": " Bl",
  "1893": " Mim",
  "1894": " Mimi",
  "1895": " shee",
  "1896": " belie",
  "1897": " ted",
  "1898": " tedd",
  "1899": " sam",
  "1900": " farmer",
  "1901": " same",
  "1902": " years",
  "1903": " pupp",
  "1904": " teddy",
  "1905": " Ho",
  "1906": " dea",
  "1907": " fit",
  "1908": " coat",
  "1909": " sear",
  "1910": " searc",
  "1911": " button",
  "1912": " gentle",
  "1913": "rill",
  "1914": " days",
  "1915": " ups",
  "1916": "Ol",
  "1917": " finally",
  "1918": " whist",
  "1919": " whistl",
  "1920": " cray",
  "1921": " crayo",
  "1922": " eas",
  "1923": " screa",
  "1924": " scream",
  "1925": " heart",
  "1926": " pill",
  "1927": "vill",
  "1928": "idg",
  "1929": "idge",
  "1930": " dropp",
  "1931": " vill",
  "1932": " villa",
  "1933": " singing",
  "1934": "ridge",
  "1935": " tasty",
  "1936": "nsw",
  "1937": "nswe",
  "1938": " trou",
  "1939": " troub",
  "1940": " troubl",
  "1941": " villag",
  "1942": " village",
  "1943": " loc",
  "1944": " herse",
  "1945": " hersel",
  "1946": " herself",
  "1947": " shell",
  "1948": " trouble",
  "1949": " hoped",
  "1950": " answe",
  "1951": " las",
  "1952": " wore",
  "1953": " swings",
  "1954": " pho",
  "1955": "kis",
  "1956": "kiss",
  "1957": " kiss",
  "1958": "fuse",
  "1959": " belong",
  "1960": " push",
  "1961": " Grand",
  "1962": " Ro",
  "1963": " rop",
  "1964": " carrot",
  "1965": " rope",
  "1966": "ubbl",
  "1967": " card",
  "1968": " woke",
  "1969": "zzy",
  "1970": "ughty",
  "1971": "nb",
  "1972": " naughty",
  "1973": " elep",
  "1974": " elepha",
  "1975": " elephant",
  "1976": " droppe",
  "1977": " dropped",
  "1978": " bell",
  "1979": " pile",
  "1980": "ria",
  "1981": " coll",
  "1982": " teache",
  "1983": "ncy",
  "1984": " sac",
  "1985": " powe",
  "1986": "hiding",
  "1987": " hiding",
  "1988": " sack",
  "1989": "rue",
  "1990": " Whis",
  "1991": "ubble",
  "1992": "nbo",
  "1993": " puppy",
  "1994": "'l",
  "1995": "'ll",
  "1996": " seem",
  "1997": " touche",
  "1998": "inbo",
  "1999": "inbow",
  "2000": " twins",
  "2001": " benc",
  "2002": " horse",
  "2003": "uice",
  "2004": " course",
  "2005": " nec",
  "2006": " cheered",
  "2007": " shapes",
  "2008": " spoo",
  "2009": "fused",
  "2010": " juice",
  "2011": "irth",
  "2012": "irthd",
  "2013": "irthda",
  "2014": "irthday",
  "2015": " rainbow",
  "2016": " ob",
  "2017": " shook",
  "2018": " chees",
  "2019": " cute",
  "2020": " bench",
  "2021": " stree",
  "2022": " street",
  "2023": " fence",
  "2024": " whistle",
  "2025": " Fred",
  "2026": " nut",
  "2027": " cheese",
  "2028": " prob",
  "2029": " patie",
  "2030": " touched",
  "2031": " Emm",
  "2032": " wand",
  "2033": " joy",
  "2034": "rived",
  "2035": " Whiske",
  "2036": " Whiskers",
  "2037": "rrived",
  "2038": " arrived",
  "2039": " seed",
  "2040": " Ol",
  "2041": " luck",
  "2042": " stea",
  "2043": " ig",
  "2044": " abl",
  "2045": " able",
  "2046": " pac",
  "2047": "ino",
  "2048": " few",
  "2049": "rint",
  "2050": " carry",
  "2051": " Rem",
  "2052": " most",
  "2053": " Blue",
  "2054": " mist",
  "2055": " expe",
  "2056": " Jen",
  "2057": " probl",
  "2058": " proble",
  "2059": " problem",
  "2060": " shad",
  "2061": " birthday",
  "2062": "num",
  "2063": "numb",
  "2064": " neck",
  "2065": " tap",
  "2066": " bugs",
  "2067": " val",
  "2068": " wonderful",
  "2069": "ilk",
  "2070": "numbe",
  "2071": " numbe",
  "2072": " dolls",
  "2073": " teacher",
  "2074": " bone",
  "2075": " wra",
  "2076": " wrap",
  "2077": " bounce",
  "2078": " Than",
  "2079": "hirp",
  "2080": " Thank",
  "2081": " may",
  "2082": " feels",
  "2083": " El",
  "2084": " Emma",
  "2085": "urry",
  "2086": " young",
  "2087": "uce",
  "2088": " milk",
  "2089": " sup",
  "2090": "Finally",
  "2091": " shake",
  "2092": " shy",
  "2093": " towa",
  "2094": " toward",
  "2095": "nse",
  "2096": " band",
  "2097": " mys",
  "2098": " poc",
  "2099": " pocke",
  "2100": " pocket",
  "2101": " mod",
  "2102": " mode",
  "2103": " helpful",
  "2104": "rug",
  "2105": " Bel",
  "2106": " slowl",
  "2107": " slowly",
  "2108": " believe",
  "2109": " print",
  "2110": " storm",
  "2111": " patient",
  "2112": "ugl",
  "2113": "ugly",
  "2114": " holding",
  "2115": " plat",
  "2116": " Bell",
  "2117": " ugly",
  "2118": " towards",
  "2119": " matc",
  "2120": " note",
  "2121": " upse",
  "2122": " upset",
  "2123": "vit",
  "2124": " turt",
  "2125": " turtl",
  "2126": " turtle",
  "2127": " squa",
  "2128": " cove",
  "2129": " sco",
  "2130": " mel",
  "2131": "zl",
  "2132": "zzl",
  "2133": " princes",
  "2134": " teach",
  "2135": " letter",
  "2136": " plate",
  "2137": "ira",
  "2138": " sharp",
  "2139": " Remy",
  "2140": " disap",
  "2141": " disapp",
  "2142": " princess",
  "2143": " stories",
  "2144": "ucc",
  "2145": "ucce",
  "2146": " honey",
  "2147": "zzle",
  "2148": " Bella",
  "2149": "ucke",
  "2150": "rna",
  "2151": " seat",
  "2152": " noises",
  "2153": " spar",
  "2154": " balls",
  "2155": " spark",
  "2156": " succe",
  "2157": " gray",
  "2158": " dist",
  "2159": "uzzle",
  "2160": " mee",
  "2161": " Lis",
  "2162": "ucket",
  "2163": " matt",
  "2164": " bucket",
  "2165": " meet",
  "2166": " magica",
  "2167": " magical",
  "2168": " amazed",
  "2169": " spide",
  "2170": " Pa",
  "2171": " wide",
  "2172": " spoon",
  "2173": " glow",
  "2174": "hroo",
  "2175": "hroom",
  "2176": " zoom",
  "2177": " lem",
  "2178": " lemo",
  "2179": " sandw",
  "2180": " sandwic",
  "2181": " mac",
  "2182": " trip",
  "2183": " comf",
  "2184": "Ha",
  "2185": " hang",
  "2186": " moo",
  "2187": " fat",
  "2188": " jou",
  "2189": " write",
  "2190": " fold",
  "2191": " gol",
  "2192": " mach",
  "2193": " machine",
  "2194": "Of",
  "2195": " snowm",
  "2196": " pen",
  "2197": " puzzle",
  "2198": " cele",
  "2199": " ima",
  "2200": " imag",
  "2201": " hos",
  "2202": " sal",
  "2203": " wild",
  "2204": " happen",
  "2205": " mixe",
  "2206": " whee",
  "2207": " hugs",
  "2208": " tak",
  "2209": " taking",
  "2210": " hoo",
  "2211": " wheel",
  "2212": " cloth",
  "2213": " Lisa",
  "2214": " sug",
  "2215": "instead",
  "2216": " instead",
  "2217": " Jim",
  "2218": " seek",
  "2219": " net",
  "2220": " drove",
  "2221": " huge",
  "2222": " Ell",
  "2223": " stars",
  "2224": " fighting",
  "2225": " coin",
  "2226": " spicy",
  "2227": "rumpy",
  "2228": " act",
  "2229": " lucky",
  "2230": " Grandm",
  "2231": " craw",
  "2232": " crawl",
  "2233": " sne",
  "2234": " Grandma",
  "2235": " oa",
  "2236": "ughte",
  "2237": " fixe",
  "2238": " Finally",
  "2239": "ughter",
  "2240": " trick",
  "2241": " ord",
  "2242": " path",
  "2243": " misse",
  "2244": " bubble",
  "2245": " spider",
  "2246": " drawing",
  "2247": "Lila",
  "2248": " sick",
  "2249": " Dog",
  "2250": " foot",
  "2251": " snowma",
  "2252": " snowman",
  "2253": " songs",
  "2254": "nvit",
  "2255": " pillo",
  "2256": " pillow",
  "2257": "invit",
  "2258": " invit",
  "2259": " Just",
  "2260": " cart",
  "2261": " fra",
  "2262": " fixed",
  "2263": " giant",
  "2264": "ncing",
  "2265": " bos",
  "2266": " boss",
  "2267": " comfo",
  "2268": " comfort",
  "2269": " comes",
  "2270": " last",
  "2271": " joke",
  "2272": " knoc",
  "2273": " moon",
  "2274": " grumpy",
  "2275": "vie",
  "2276": " Leo",
  "2277": " twis",
  "2278": " twist",
  "2279": " dadd",
  "2280": " Go",
  "2281": " stepp",
  "2282": " grab",
  "2283": "nfused",
  "2284": "Chirp",
  "2285": " acc",
  "2286": " peace",
  "2287": " ches",
  "2288": " smoo",
  "2289": " daddy",
  "2290": " smoot",
  "2291": " shelf",
  "2292": " self",
  "2293": " Come",
  "2294": " suddenly",
  "2295": " pal",
  "2296": " wasn",
  "2297": " lande",
  "2298": " landed",
  "2299": " confused",
  "2300": " goa",
  "2301": " worm",
  "2302": "ular",
  "2303": " interest",
  "2304": " chased",
  "2305": " myst",
  "2306": " Jill",
  "2307": " myste",
  "2308": " disc",
  "2309": " rad",
  "2310": " smooth",
  "2311": " adventures",
  "2312": " steppe",
  "2313": " stepped",
  "2314": "ura",
  "2315": " oven",
  "2316": " takes",
  "2317": " missed",
  "2318": " acro",
  "2319": " selfis",
  "2320": " selfish",
  "2321": " add",
  "2322": " sheep",
  "2323": " messy",
  "2324": " grat",
  "2325": " acros",
  "2326": " across",
  "2327": " painte",
  "2328": "nco",
  "2329": "hirt",
  "2330": " ent",
  "2331": " later",
  "2332": " sticks",
  "2333": " Luna",
  "2334": " bought",
  "2335": " stat",
  "2336": "Chirpy",
  "2337": "?\u00e2\u0080\u009d",
  "2338": " lay",
  "2339": " grate",
  "2340": " wash",
  "2341": " phone",
  "2342": " jog",
  "2343": " beak",
  "2344": " emp",
  "2345": " Mol",
  "2346": " ducks",
  "2347": " appe",
  "2348": " grateful",
  "2349": " legs",
  "2350": " empt",
  "2351": " feat",
  "2352": " dig",
  "2353": " bul",
  "2354": " spra",
  "2355": "resp",
  "2356": " appea",
  "2357": " empty",
  "2358": " feathe",
  "2359": " shirt",
  "2360": " sleepy",
  "2361": " Oll",
  "2362": " fing",
  "2363": " finge",
  "2364": " Po",
  "2365": " cleve",
  "2366": " Moll",
  "2367": " resp",
  "2368": " wol",
  "2369": " dia",
  "2370": " Molly",
  "2371": " smelly",
  "2372": " interesting",
  "2373": " clever",
  "2374": " calm",
  "2375": " splash",
  "2376": " med",
  "2377": " watching",
  "2378": "izzy",
  "2379": " longe",
  "2380": "ncl",
  "2381": " clouds",
  "2382": " bana",
  "2383": " banana",
  "2384": "rra",
  "2385": " igno",
  "2386": " backy",
  "2387": " backya",
  "2388": " backyard",
  "2389": " thoug",
  "2390": " though",
  "2391": " wolf",
  "2392": " seeme",
  "2393": " seemed",
  "2394": " dogs",
  "2395": " spray",
  "2396": " prot",
  "2397": " prote",
  "2398": " whol",
  "2399": " whole",
  "2400": " fancy",
  "2401": " expla",
  "2402": " building",
  "2403": " Dadd",
  "2404": " supp",
  "2405": " Daddy",
  "2406": " ques",
  "2407": " quest",
  "2408": " arms",
  "2409": " protec",
  "2410": " protect",
  "2411": " healthy",
  "2412": " rocke",
  "2413": " along",
  "2414": " rocket",
  "2415": " stoo",
  "2416": " rod",
  "2417": " jew",
  "2418": " jewe",
  "2419": " jewel",
  "2420": "hick",
  "2421": " easy",
  "2422": " oc",
  "2423": " jel",
  "2424": " jell",
  "2425": " mas",
  "2426": " prac",
  "2427": " pract",
  "2428": " splashe",
  "2429": " jelly",
  "2430": " Chirpy",
  "2431": " questio",
  "2432": " fake",
  "2433": " crayons",
  "2434": " wondered",
  "2435": " mayb",
  "2436": " maybe",
  "2437": " nothing",
  "2438": " emb",
  "2439": "retc",
  "2440": " pool",
  "2441": " longer",
  "2442": "idy",
  "2443": " quee",
  "2444": " anyo",
  "2445": " anyone",
  "2446": " Jerry",
  "2447": " front",
  "2448": "icket",
  "2449": " Dogg",
  "2450": " neig",
  "2451": " compl",
  "2452": " meas",
  "2453": " measu",
  "2454": " gives",
  "2455": " bossy",
  "2456": " cap",
  "2457": " Doggy",
  "2458": " smelle",
  "2459": " smelled",
  "2460": " saved",
  "2461": " sort",
  "2462": "arra",
  "2463": " pack",
  "2464": " neigh",
  "2465": "arras",
  "2466": "arrass",
  "2467": " lock",
  "2468": " es",
  "2469": " hones",
  "2470": " honest",
  "2471": " embarrass",
  "2472": " cleane",
  "2473": "hicke",
  "2474": " tidy",
  "2475": " Wit",
  "2476": " van",
  "2477": " puts",
  "2478": "kick",
  "2479": " mind",
  "2480": " Ollie",
  "2481": " neighb",
  "2482": " neighbo",
  "2483": " plants",
  "2484": " kick",
  "2485": " Momo",
  "2486": " cros",
  "2487": " cross",
  "2488": " gently",
  "2489": " cozy",
  "2490": " crow",
  "2491": "orrow",
  "2492": " mista",
  "2493": " mistake",
  "2494": " lar",
  "2495": " pee",
  "2496": " larg",
  "2497": " large",
  "2498": " pointe",
  "2499": " wee",
  "2500": " yog",
  "2501": " spea",
  "2502": " hal",
  "2503": " pointed",
  "2504": " stood",
  "2505": " ont",
  "2506": " onto",
  "2507": " weak",
  "2508": " waiting",
  "2509": " jumping",
  "2510": " queen",
  "2511": " Why",
  "2512": " Mary",
  "2513": " chicke",
  "2514": " swimm",
  "2515": " couc",
  "2516": " sparkl",
  "2517": " ladd",
  "2518": " ladde",
  "2519": " ret",
  "2520": " deer",
  "2521": " chew",
  "2522": " couch",
  "2523": "ule",
  "2524": " stretc",
  "2525": " Thei",
  "2526": " Their",
  "2527": " colle",
  "2528": " places",
  "2529": " My",
  "2530": " collec",
  "2531": " collect",
  "2532": "rso",
  "2533": " ladder",
  "2534": " retu",
  "2535": " bala",
  "2536": " ants",
  "2537": "zza",
  "2538": " bridge",
  "2539": "izza",
  "2540": " afra",
  "2541": " afraid",
  "2542": " cleaned",
  "2543": " tomorrow",
  "2544": " perso",
  "2545": " sandwich",
  "2546": "iona",
  "2547": " teas",
  "2548": " bake",
  "2549": " dish",
  "2550": "ubbe",
  "2551": " pretende",
  "2552": " pretended",
  "2553": " Pl",
  "2554": " With",
  "2555": " wip",
  "2556": " person",
  "2557": " tee",
  "2558": " gathe",
  "2559": " pizza",
  "2560": " wom",
  "2561": " teet",
  "2562": "rubbe",
  "2563": " teeth",
  "2564": " daughter",
  "2565": " woma",
  "2566": " woman",
  "2567": " Lo",
  "2568": " goe",
  "2569": " goes",
  "2570": " Tog",
  "2571": " Toge",
  "2572": " Toget",
  "2573": " Togethe",
  "2574": " Together",
  "2575": " law",
  "2576": " swimming",
  "2577": " furry",
  "2578": " retur",
  "2579": " splashed",
  "2580": " loves",
  "2581": " true",
  "2582": " screame",
  "2583": " screamed",
  "2584": " lazy",
  "2585": " answer",
  "2586": " practice",
  "2587": " eag",
  "2588": " asha",
  "2589": " asham",
  "2590": " ashame",
  "2591": " ashamed",
  "2592": " St",
  "2593": " Bea",
  "2594": " moto",
  "2595": " appeared",
  "2596": " nearb",
  "2597": " nearby",
  "2598": " powerful",
  "2599": " cone",
  "2600": " flag",
  "2601": "vous",
  "2602": " clow",
  "2603": " invite",
  "2604": " polit",
  "2605": " polite",
  "2606": " motor",
  "2607": " succes",
  "2608": " success",
  "2609": " number",
  "2610": " bloo",
  "2611": " TV",
  "2612": " choc",
  "2613": " choco",
  "2614": " respe",
  "2615": " respec",
  "2616": " respect",
  "2617": " chocol",
  "2618": " chocola",
  "2619": " chocolat",
  "2620": " chocolate",
  "2621": " If",
  "2622": " beco",
  "2623": " becom",
  "2624": " trust",
  "2625": " wearing",
  "2626": " matte",
  "2627": " noisy",
  "2628": " Pet",
  "2629": " hell",
  "2630": " hello",
  "2631": " tool",
  "2632": " wipe",
  "2633": " ner",
  "2634": " Bird",
  "2635": " nervous",
  "2636": " clas",
  "2637": "usu",
  "2638": " swo",
  "2639": " Bobb",
  "2640": "usua",
  "2641": "usual",
  "2642": " Pete",
  "2643": "nized",
  "2644": " tes",
  "2645": " test",
  "2646": "rror",
  "2647": " sold",
  "2648": " class",
  "2649": " tape",
  "2650": "inos",
  "2651": " stud",
  "2652": "vide",
  "2653": " map",
  "2654": " dran",
  "2655": " drank",
  "2656": "inosa",
  "2657": "inosau",
  "2658": " tries",
  "2659": "reg",
  "2660": " Ple",
  "2661": " Duck",
  "2662": " Plea",
  "2663": " Pleas",
  "2664": " Please",
  "2665": "hut",
  "2666": " impress",
  "2667": "icro",
  "2668": " lam",
  "2669": " whal",
  "2670": " whale",
  "2671": " gene",
  "2672": " dinosau",
  "2673": " lemon",
  "2674": " peaceful",
  "2675": " Bobby",
  "2676": " gate",
  "2677": " Tiny",
  "2678": " balloons",
  "2679": "irror",
  "2680": " gold",
  "2681": " counte",
  "2682": " gue",
  "2683": " gues",
  "2684": " roar",
  "2685": " disco",
  "2686": " carried",
  "2687": " genero",
  "2688": " clear",
  "2689": " shado",
  "2690": " shadow",
  "2691": " mirror",
  "2692": " bald",
  "2693": " trac",
  "2694": " glas",
  "2695": " glass",
  "2696": " reg",
  "2697": " hero",
  "2698": " mysterious",
  "2699": " pump",
  "2700": " snee",
  "2701": " balance",
  "2702": " icy",
  "2703": " rubbe",
  "2704": " weird",
  "2705": " blow",
  "2706": "ums",
  "2707": " soap",
  "2708": " thes",
  "2709": " these",
  "2710": " towel",
  "2711": " fort",
  "2712": " clown",
  "2713": " exa",
  "2714": " match",
  "2715": " dista",
  "2716": " boot",
  "2717": " feet",
  "2718": " lose",
  "2719": " poor",
  "2720": " dizzy",
  "2721": " generous",
  "2722": " Benny",
  "2723": " cop",
  "2724": "icn",
  "2725": "ventua",
  "2726": "ventual",
  "2727": "ventuall",
  "2728": "ventually",
  "2729": " picn",
  "2730": " suga",
  "2731": " picnic",
  "2732": " lead",
  "2733": " sque",
  "2734": " micro",
  "2735": " embarrasse",
  "2736": " embarrassed",
  "2737": " jour",
  "2738": " journe",
  "2739": " journey",
  "2740": " tele",
  "2741": " sugar",
  "2742": " tent",
  "2743": " Zo",
  "2744": " scis",
  "2745": " sciss",
  "2746": " scisso",
  "2747": " pumpk",
  "2748": " pumpki",
  "2749": " scissors",
  "2750": " tasted",
  "2751": " yelle",
  "2752": " yelled",
  "2753": " become",
  "2754": " eage",
  "2755": " dancing",
  "2756": " cag",
  "2757": " cage",
  "2758": " deco",
  "2759": " Bear",
  "2760": " decora",
  "2761": " decorat",
  "2762": " closet",
  "2763": " vas",
  "2764": "veg",
  "2765": " veg",
  "2766": " Somet",
  "2767": " Sometim",
  "2768": " Sometime",
  "2769": " Sometimes",
  "2770": " How",
  "2771": " matter",
  "2772": " lamp",
  "2773": " vase",
  "2774": " gig",
  "2775": " relie",
  "2776": "Ne",
  "2777": " eld",
  "2778": " elde",
  "2779": "uto",
  "2780": " celeb",
  "2781": " gigg",
  "2782": " giggl",
  "2783": " celebra",
  "2784": " celebrat",
  "2785": " whisp",
  "2786": " whispe",
  "2787": " log",
  "2788": "iq",
  "2789": " painted",
  "2790": " Ducky",
  "2791": " pay",
  "2792": " berries",
  "2793": " mixed",
  "2794": " spre",
  "2795": " sprea",
  "2796": " spread",
  "2797": " wouldn",
  "2798": " ros",
  "2799": " mount",
  "2800": "iga",
  "2801": " mounta",
  "2802": " mountai",
  "2803": " adm",
  "2804": " famo",
  "2805": " famous",
  "2806": " qua",
  "2807": " knocked",
  "2808": " rose",
  "2809": " vege",
  "2810": " veget",
  "2811": " vegeta",
  "2812": " norm",
  "2813": " norma",
  "2814": " normal",
  "2815": " disappe",
  "2816": " disappea",
  "2817": " vegetab",
  "2818": " vegetabl",
  "2819": " vegetable",
  "2820": "kicked",
  "2821": " kicked",
  "2822": "ncred",
  "2823": "ncredi",
  "2824": "ncredib",
  "2825": "ncredibl",
  "2826": "iza",
  "2827": " cloc",
  "2828": " clock",
  "2829": "incredibl",
  "2830": " incredibl",
  "2831": "rustra",
  "2832": "rustrat",
  "2833": " group",
  "2834": " scoo",
  "2835": " 3",
  "2836": " chea",
  "2837": " esc",
  "2838": " team",
  "2839": "rese",
  "2840": " esca",
  "2841": " elderl",
  "2842": " elderly",
  "2843": " escap",
  "2844": " guess",
  "2845": " Mam",
  "2846": " scare",
  "2847": " candl",
  "2848": " candle",
  "2849": " frustrat",
  "2850": " crown",
  "2851": " mighty",
  "2852": " pos",
  "2853": " kisse",
  "2854": " incredible",
  "2855": "rice",
  "2856": "ncie",
  "2857": " prese",
  "2858": " moms",
  "2859": " Ha",
  "2860": " jea",
  "2861": "inning",
  "2862": " track",
  "2863": " pep",
  "2864": " escape",
  "2865": " pepp",
  "2866": " peppe",
  "2867": " smalle",
  "2868": " spac",
  "2869": " hose",
  "2870": " space",
  "2871": "anized",
  "2872": "ganized",
  "2873": "rganized",
  "2874": " gas",
  "2875": " jam",
  "2876": " fright",
  "2877": " frag",
  "2878": " branche",
  "2879": " branches",
  "2880": " organized",
  "2881": " sword",
  "2882": " Mama",
  "2883": " fool",
  "2884": " sell",
  "2885": " feed",
  "2886": " thick",
  "2887": " present",
  "2888": " jeal",
  "2889": " jealo",
  "2890": " jealous",
  "2891": " yar",
  "2892": " fragile",
  "2893": " yarn",
  "2894": " understo",
  "2895": " understoo",
  "2896": " understood",
  "2897": " exam",
  "2898": "ubbo",
  "2899": "ubbor",
  "2900": "ubborn",
  "2901": " obe",
  "2902": " stubborn",
  "2903": " frustrate",
  "2904": " frighte",
  "2905": " frustrated",
  "2906": " washe",
  "2907": "irat",
  "2908": "ncient",
  "2909": " spent",
  "2910": " taught",
  "2911": " wago",
  "2912": " yourse",
  "2913": " yoursel",
  "2914": "ique",
  "2915": " spoile",
  "2916": "nique",
  "2917": " chest",
  "2918": " spoiled",
  "2919": " relieved",
  "2920": "vet",
  "2921": " bitt",
  "2922": " bitte",
  "2923": " ancient",
  "2924": " comforta",
  "2925": " comfortab",
  "2926": " comfortabl",
  "2927": " wake",
  "2928": " fier",
  "2929": " fierc",
  "2930": " fierce",
  "2931": " pray",
  "2932": " eggs",
  "2933": "unique",
  "2934": " unique",
  "2935": " bod",
  "2936": " Te",
  "2937": " pumpkin",
  "2938": " comfortable",
  "2939": " grap",
  "2940": "nusual",
  "2941": " crac",
  "2942": " frightene",
  "2943": " frightened",
  "2944": " grape",
  "2945": " dinosaur",
  "2946": " goat",
  "2947": " wagon",
  "2948": "unusual",
  "2949": " unusual",
  "2950": " foolis",
  "2951": " foolish",
  "2952": " board",
  "2953": " useful",
  "2954": " explor",
  "2955": " exploring",
  "2956": " finding",
  "2957": " straw",
  "2958": " dug",
  "2959": " clay",
  "2960": " discove",
  "2961": " toma",
  "2962": " tomat",
  "2963": " tomato",
  "2964": " dead",
  "2965": " giggle",
  "2966": " police",
  "2967": " wrot",
  "2968": " wrote",
  "2969": " clums",
  "2970": " waves",
  "2971": " rat",
  "2972": "izard",
  "2973": " searche",
  "2974": " hears",
  "2975": " neckl",
  "2976": " tells",
  "2977": " neckla",
  "2978": " necklac",
  "2979": " necklace",
  "2980": " dul",
  "2981": " dull",
  "2982": " clumsy",
  "2983": " bubbles",
  "2984": " nosy",
  "2985": " measure",
  "2986": " wonder",
  "2987": " searched",
  "2988": " washed",
  "2989": "irate",
  "2990": "throom",
  "2991": " painting",
  "2992": " bathroom",
  "2993": " beha",
  "2994": " melt",
  "2995": " floa",
  "2996": " float",
  "2997": " paws",
  "2998": " flas",
  "2999": " thankful",
  "3000": " office",
  "3001": "nkno",
  "3002": "nknow",
  "3003": "urag",
  "3004": " asking",
  "3005": " crazy",
  "3006": "unknow",
  "3007": " witc",
  "3008": " bitter",
  "3009": " ending",
  "3010": " Bro",
  "3011": " unknow",
  "3012": "verse",
  "3013": " pirate",
  "3014": " ind",
  "3015": " pit",
  "3016": " ham",
  "3017": " bloom",
  "3018": " scal",
  "3019": " gloo",
  "3020": " gloom",
  "3021": " unknown",
  "3022": " Ella",
  "3023": " covered",
  "3024": " trap",
  "3025": " penc",
  "3026": " mountain",
  "3027": " pencil",
  "3028": " cheap",
  "3029": " hoop",
  "3030": " finger",
  "3031": " jet",
  "3032": " witch",
  "3033": " flut",
  "3034": " strawb",
  "3035": " strawbe",
  "3036": " '",
  "3037": " chicken",
  "3038": " gloomy",
  "3039": "ncle",
  "3040": " loy",
  "3041": " loya",
  "3042": " loyal",
  "3043": " cos",
  "3044": " folde",
  "3045": " anyw",
  "3046": " wealthy",
  "3047": " value",
  "3048": " scale",
  "3049": " cats",
  "3050": " meal",
  "3051": " celebrate",
  "3052": " inde",
  "3053": " joined",
  "3054": " compa",
  "3055": " movie",
  "3056": " sala",
  "3057": " Rex",
  "3058": " salad",
  "3059": " choo",
  "3060": " toa",
  "3061": " Andy",
  "3062": " U",
  "3063": " nuts",
  "3064": " Will",
  "3065": " pota",
  "3066": " potat",
  "3067": " potato",
  "3068": " mask",
  "3069": " orde",
  "3070": " changed",
  "3071": " moving",
  "3072": "rugg",
  "3073": " exciting",
  "3074": "inut",
  "3075": "inute",
  "3076": " Many",
  "3077": " body",
  "3078": " polis",
  "3079": " toas",
  "3080": " toast",
  "3081": " minute",
  "3082": " disg",
  "3083": "irsty",
  "3084": " flex",
  "3085": " knowing",
  "3086": " enorm",
  "3087": " yourself",
  "3088": " enormo",
  "3089": " enormous",
  "3090": " hairy",
  "3091": " shoot",
  "3092": "udg",
  "3093": " Brow",
  "3094": " bored",
  "3095": " soldie",
  "3096": " flexi",
  "3097": " flexib",
  "3098": " remind",
  "3099": " solve",
  "3100": " aco",
  "3101": " acor",
  "3102": " adventuro",
  "3103": " adventurous",
  "3104": " smaller",
  "3105": " Jimm",
  "3106": " hats",
  "3107": " delica",
  "3108": " flexibl",
  "3109": " delicat",
  "3110": " delicate",
  "3111": " Brown",
  "3112": "urage",
  "3113": " Jimmy",
  "3114": " flexible",
  "3115": " cost",
  "3116": "rilliant",
  "3117": " snacks",
  "3118": " nods",
  "3119": " chec",
  "3120": "hirsty",
  "3121": " brilliant",
  "3122": " thirsty",
  "3123": " frow",
  "3124": " disgust",
  "3125": "udge",
  "3126": " seeds",
  "3127": " counted",
  "3128": " asl",
  "3129": " asle",
  "3130": " aslee",
  "3131": " asleep",
  "3132": " mailb",
  "3133": "Ow",
  "3134": " mailbo",
  "3135": " mailbox",
  "3136": " doug",
  "3137": " dough",
  "3138": " shore",
  "3139": " neighbor",
  "3140": " stag",
  "3141": " stage",
  "3142": " melo",
  "3143": "using",
  "3144": " crane",
  "3145": " dep",
  "3146": " rela",
  "3147": " square",
  "3148": " squee",
  "3149": " jol",
  "3150": " suppo",
  "3151": " statue",
  "3152": " pag",
  "3153": " page",
  "3154": " Zoo",
  "3155": "brel",
  "3156": "brell",
  "3157": "brella",
  "3158": " explained",
  "3159": " um",
  "3160": " wrapp",
  "3161": "rpill",
  "3162": "erpill",
  "3163": "erpilla",
  "3164": " umbrella",
  "3165": " choos",
  "3166": " popp",
  "3167": " disgusting",
  "3168": " joll",
  "3169": " pepper",
  "3170": " ze",
  "3171": " lab",
  "3172": " jolly",
  "3173": " fridge",
  "3174": " Zoom",
  "3175": " mana",
  "3176": " manag",
  "3177": " sticke",
  "3178": " successful",
  "3179": " desig",
  "3180": " flash",
  "3181": " isl",
  "3182": " isla",
  "3183": " island",
  "3184": " swan",
  "3185": " times",
  "3186": " caterpilla",
  "3187": " relax",
  "3188": "icine",
  "3189": " harm",
  "3190": " While",
  "3191": " stup",
  "3192": "igat",
  "3193": " stupid",
  "3194": " Instead",
  "3195": " comb",
  "3196": " freeze",
  "3197": " goos",
  "3198": " goose",
  "3199": " Ra",
  "3200": " manage",
  "3201": " medicine",
  "3202": " mid",
  "3203": " stam",
  "3204": " indep",
  "3205": " indepe",
  "3206": " independ",
  "3207": " independe",
  "3208": " passe",
  "3209": " sauce",
  "3210": " gem",
  "3211": " fan",
  "3212": " vegetables",
  "3213": " news",
  "3214": " stones",
  "3215": " obed",
  "3216": " obedie",
  "3217": " search",
  "3218": " depe",
  "3219": " depend",
  "3220": " carel",
  "3221": " carele",
  "3222": " careles",
  "3223": " low",
  "3224": " careless",
  "3225": " stamp",
  "3226": " cries",
  "3227": "riang",
  "3228": "Inside",
  "3229": " carrots",
  "3230": " Your",
  "3231": " press",
  "3232": "riangl",
  "3233": "riangle",
  "3234": " nat",
  "3235": " jee",
  "3236": " alm",
  "3237": " almo",
  "3238": " jeep",
  "3239": " midd",
  "3240": " popc",
  "3241": " popco",
  "3242": " popcor",
  "3243": " obedient",
  "3244": " almos",
  "3245": " almost",
  "3246": " middl",
  "3247": " middle",
  "3248": " popcorn",
  "3249": " study",
  "3250": " fearful",
  "3251": " independent",
  "3252": " Samm",
  "3253": " jac",
  "3254": " offe",
  "3255": " mol",
  "3256": " choose",
  "3257": " chal",
  "3258": " Sammy",
  "3259": " caterpillar",
  "3260": " serious",
  "3261": " peanut",
  "3262": " bedro",
  "3263": " bedroo",
  "3264": " bedroom",
  "3265": " eager",
  "3266": " gets",
  "3267": " helm",
  "3268": " parrot",
  "3269": " helme",
  "3270": " helmet",
  "3271": " pebb",
  "3272": " pebbl",
  "3273": " pebble",
  "3274": " fount",
  "3275": " founta",
  "3276": " fountai",
  "3277": " pasta",
  "3278": "ilthy",
  "3279": " rave",
  "3280": " compe",
  "3281": " hamm",
  "3282": " compet",
  "3283": " jacke",
  "3284": " jacket",
  "3285": " belonge",
  "3286": " belonged",
  "3287": " dest",
  "3288": " filthy",
  "3289": " cheerful",
  "3290": " borrow",
  "3291": " hamme",
  "3292": " fountain",
  "3293": " mise",
  "3294": " houses",
  "3295": " raven",
  "3296": " brac",
  "3297": " brace",
  "3298": " belt",
  "3299": " thoughtful",
  "3300": " hay",
  "3301": " misera",
  "3302": " miserab",
  "3303": " miserabl",
  "3304": " standing",
  "3305": " miserable",
  "3306": " bracel",
  "3307": " bracele",
  "3308": " bracelet",
  "3309": " raced",
  "3310": " taken",
  "3311": " spott",
  "3312": "usa",
  "3313": " avo",
  "3314": " crayon",
  "3315": "ripped",
  "3316": " jug",
  "3317": " impressi",
  "3318": " impressive",
  "3319": " triangle",
  "3320": " mole",
  "3321": " lim",
  "3322": " colla",
  "3323": " tied",
  "3324": " spotte",
  "3325": " spotted",
  "3326": " tan",
  "3327": " slipped",
  "3328": " steal",
  "3329": " dependa",
  "3330": " dependab",
  "3331": " tank",
  "3332": " squas",
  "3333": " Ros",
  "3334": " quit",
  "3335": " dependabl",
  "3336": " dependable",
  "3337": " blueb",
  "3338": " gara",
  "3339": " garag",
  "3340": " garage",
  "3341": " crawle",
  "3342": " bull",
  "3343": "uffi",
  "3344": " pant",
  "3345": "iano",
  "3346": " crawled",
  "3347": "unco",
  "3348": " unco",
  "3349": " boats",
  "3350": " cover",
  "3351": " hammer",
  "3352": " piano",
  "3353": " botto",
  "3354": " bottom",
  "3355": " smoke",
  "3356": " using",
  "3357": " Tw",
  "3358": " picks",
  "3359": " shows",
  "3360": " wrappe",
  "3361": "ushroom",
  "3362": " magne",
  "3363": " magnet",
  "3364": "dile",
  "3365": "odile",
  "3366": " waf",
  "3367": "codile",
  "3368": " hurts",
  "3369": "inary",
  "3370": " eng",
  "3371": " flute",
  "3372": " radis",
  "3373": " melon",
  "3374": " aunt",
  "3375": " waff",
  "3376": " waffl",
  "3377": " waffle",
  "3378": " moder",
  "3379": " modern",
  "3380": " dolp",
  "3381": " dolph",
  "3382": " dolphi",
  "3383": " Fo",
  "3384": " soar",
  "3385": " arrow",
  "3386": " hopping",
  "3387": " costum",
  "3388": " costume",
  "3389": " mushroom",
  "3390": " atta",
  "3391": " attac",
  "3392": "Timm",
  "3393": " engine",
  "3394": "Timmy",
  "3395": " squash",
  "3396": "vine",
  "3397": "rim",
  "3398": " playful",
  "3399": " tax",
  "3400": " beet",
  "3401": " beetl",
  "3402": " beetle",
  "3403": " lol",
  "3404": " loll",
  "3405": " ones",
  "3406": " vine",
  "3407": " bluebe",
  "3408": " Ted",
  "3409": " crys",
  "3410": " cryst",
  "3411": " crysta",
  "3412": " crystal",
  "3413": " coc",
  "3414": " popular",
  "3415": " competit",
  "3416": " decorate",
  "3417": " stronge",
  "3418": " helic",
  "3419": " helico",
  "3420": " helicop",
  "3421": " helicopt",
  "3422": " helicopte",
  "3423": " needs",
  "3424": " crocodile",
  "3425": " tricks",
  "3426": " lizard",
  "3427": " camera",
  "3428": " troubled",
  "3429": " era",
  "3430": "Cl",
  "3431": " eras",
  "3432": " pige",
  "3433": " pigeo",
  "3434": " locked",
  "3435": " harde",
  "3436": " lollip",
  "3437": " lollipo",
  "3438": " lollipop",
  "3439": " allo",
  "3440": " allow",
  "3441": " Wa",
  "3442": " taxi",
  "3443": " opera",
  "3444": " kissed",
  "3445": "inse",
  "3446": " uncom",
  "3447": " uncomf",
  "3448": " uncomfo",
  "3449": " uncomfort",
  "3450": " uncomforta",
  "3451": " uncomfortab",
  "3452": " uncomfortabl",
  "3453": " uncomfortable",
  "3454": " grac",
  "3455": " erase",
  "3456": " wande",
  "3457": "nx",
  "3458": " grace",
  "3459": " deli",
  "3460": " anx",
  "3461": " wrapped",
  "3462": " shoc",
  "3463": " twig",
  "3464": " pants",
  "3465": " colou",
  "3466": " disappo",
  "3467": " disappoint",
  "3468": " helps",
  "3469": " patt",
  "3470": " diam",
  "3471": " diamo",
  "3472": " diamond",
  "3473": " snap",
  "3474": " coco",
  "3475": " anxious",
  "3476": "icyc",
  "3477": "icycl",
  "3478": " gho",
  "3479": " ghos",
  "3480": " ghost",
  "3481": "icycle",
  "3482": " muffi",
  "3483": " pip",
  "3484": " tears",
  "3485": "uined",
  "3486": "ruined",
  "3487": " ruined",
  "3488": " mop",
  "3489": " pipe",
  "3490": " lime",
  "3491": " Jenny",
  "3492": " helicopter",
  "3493": " ae",
  "3494": " aero",
  "3495": " aerop",
  "3496": " aeropl",
  "3497": " aeropla",
  "3498": " aeroplane",
  "3499": " helpl",
  "3500": " helple",
  "3501": " helples",
  "3502": " helpless",
  "3503": " happine",
  "3504": " happines",
  "3505": " happiness",
  "3506": " cac",
  "3507": " quarrel",
  "3508": " boys",
  "3509": " walks",
  "3510": " patte",
  "3511": " needl",
  "3512": " needle",
  "3513": " passed",
  "3514": "Nex",
  "3515": "Next",
  "3516": " meant",
  "3517": " radio",
  "3518": " oce",
  "3519": " ocea",
  "3520": " fluffy",
  "3521": "ury",
  "3522": "rsis",
  "3523": "rsist",
  "3524": " nail",
  "3525": " deaf",
  "3526": "rsiste",
  "3527": " cact",
  "3528": " swea",
  "3529": " sweat",
  "3530": "rumpe",
  "3531": " persiste",
  "3532": " harml",
  "3533": " harmle",
  "3534": " harmles",
  "3535": " harmless",
  "3536": " feather",
  "3537": "rumpet",
  "3538": " ordinary",
  "3539": " answered",
  "3540": " collar",
  "3541": " bees",
  "3542": " graceful",
  "3543": " comple",
  "3544": "rule",
  "3545": " rule",
  "3546": " flashl",
  "3547": " flashlight",
  "3548": " shade",
  "3549": " harder",
  "3550": " trumpet",
  "3551": " cere",
  "3552": " cerea",
  "3553": " cereal",
  "3554": " complet",
  "3555": "hunt",
  "3556": " hunt",
  "3557": " invited",
  "3558": " comput",
  "3559": " compute",
  "3560": " spee",
  "3561": " tag",
  "3562": " spill",
  "3563": " ocean",
  "3564": " charm",
  "3565": " det",
  "3566": " scoot",
  "3567": " Bet",
  "3568": " Tod",
  "3569": " comet",
  "3570": " mug",
  "3571": " crack",
  "3572": " yogurt",
  "3573": " loa",
  "3574": " spend",
  "3575": " compas",
  "3576": " compass",
  "3577": " accide",
  "3578": " accident",
  "3579": " scoote",
  "3580": " mit",
  "3581": " mitt",
  "3582": " pale",
  "3583": " disappointe",
  "3584": " disappointed",
  "3585": " licked",
  "3586": "iol",
  "3587": " cactus",
  "3588": " giving",
  "3589": " avoc",
  "3590": " avoca",
  "3591": " avocad",
  "3592": " avocado",
  "3593": " loude",
  "3594": " sheet",
  "3595": " roof",
  "3596": " whispered",
  "3597": " speed",
  "3598": " hars",
  "3599": " rode",
  "3600": " intel",
  "3601": " intell",
  "3602": " intellig",
  "3603": " intellige",
  "3604": " Hop",
  "3605": "ubby",
  "3606": "hrim",
  "3607": "hrimp",
  "3608": " load",
  "3609": " harsh",
  "3610": " bump",
  "3611": "vious",
  "3612": " practiced",
  "3613": " complete",
  "3614": " delight",
  "3615": " dust",
  "3616": " True",
  "3617": " bicycle",
  "3618": " spag",
  "3619": " spaghe",
  "3620": " spaghet",
  "3621": " spaghett",
  "3622": " spaghetti",
  "3623": "irem",
  "3624": " scree",
  "3625": " saile",
  "3626": " sailed",
  "3627": " inse",
  "3628": " banda",
  "3629": " sett",
  "3630": " persistent",
  "3631": " regular",
  "3632": " mitte",
  "3633": " scra",
  "3634": " cocoa",
  "3635": " power",
  "3636": " vol",
  "3637": " questions",
  "3638": " computer",
  "3639": " speak",
  "3640": " feathers",
  "3641": " acce",
  "3642": " glove",
  "3643": " rice",
  "3644": "uct",
  "3645": " shrimp",
  "3646": " desk",
  "3647": " pigeon",
  "3648": " bandag",
  "3649": " charming",
  "3650": " bandage",
  "3651": " post",
  "3652": "nvious",
  "3653": " ears",
  "3654": " raf",
  "3655": " carp",
  "3656": " raft",
  "3657": " knot",
  "3658": " envious",
  "3659": " stronger",
  "3660": " firem",
  "3661": " remo",
  "3662": " carpe",
  "3663": " coins",
  "3664": " para",
  "3665": "hubby",
  "3666": " boxe",
  "3667": " whea",
  "3668": " wheat",
  "3669": " boxes",
  "3670": " chubby",
  "3671": " carpet",
  "3672": " restl",
  "3673": " restle",
  "3674": " restles",
  "3675": " restless",
  "3676": " seal",
  "3677": " intelligent",
  "3678": " friendsh",
  "3679": " friendship",
  "3680": " half",
  "3681": " Ba",
  "3682": "uffe",
  "3683": " broc",
  "3684": " brocc",
  "3685": " brocco",
  "3686": " broccol",
  "3687": " delive",
  "3688": " volc",
  "3689": " volca",
  "3690": " volcano",
  "3691": " rais",
  "3692": "viol",
  "3693": " loop",
  "3694": " salt",
  "3695": " broccoli",
  "3696": " viol",
  "3697": " dete",
  "3698": "video",
  "3699": " video",
  "3700": " accep",
  "3701": " accept",
  "3702": " Jake",
  "3703": " attra",
  "3704": " attrac",
  "3705": " attract",
  "3706": " judge",
  "3707": " earl",
  "3708": " ticket",
  "3709": " ale",
  "3710": " insec",
  "3711": " alert",
  "3712": " louder",
  "3713": " insect",
  "3714": " numbers",
  "3715": " ente",
  "3716": " yaw",
  "3717": " parad",
  "3718": " sleeping",
  "3719": " mill",
  "3720": " eventually",
  "3721": " hosp",
  "3722": " hospit",
  "3723": " hospita",
  "3724": " hospital",
  "3725": " planet",
  "3726": " brick",
  "3727": "Bill",
  "3728": " Toda",
  "3729": " Today",
  "3730": " parade",
  "3731": " eraser",
  "3732": " returne",
  "3733": " returned",
  "3734": " destro",
  "3735": " destroy",
  "3736": "usag",
  "3737": "usage",
  "3738": " happening",
  "3739": " poe",
  "3740": " violi",
  "3741": " OK",
  "3742": "ionat",
  "3743": "ionate",
  "3744": " Emily",
  "3745": " learning",
  "3746": " screen",
  "3747": " nicel",
  "3748": " nicely",
  "3749": " competiti",
  "3750": " competitive",
  "3751": " leo",
  "3752": "nurse",
  "3753": " nurse",
  "3754": " leop",
  "3755": " leopa",
  "3756": " leopard",
  "3757": " poem",
  "3758": " flam",
  "3759": "rut",
  "3760": "inat",
  "3761": " base",
  "3762": "urta",
  "3763": "urtai",
  "3764": " peach",
  "3765": " soldier",
  "3766": " ignora",
  "3767": " sausage",
  "3768": "rune",
  "3769": " ado",
  "3770": " attracti",
  "3771": " attractive",
  "3772": " curtai",
  "3773": " dolphin",
  "3774": " violin",
  "3775": " Pipp",
  "3776": " ways",
  "3777": " Wo",
  "3778": " repa",
  "3779": " scat",
  "3780": " scatt",
  "3781": " design",
  "3782": " compassionate",
  "3783": " scatte",
  "3784": " ignorant",
  "3785": " wheels",
  "3786": " yac",
  "3787": " yacht",
  "3788": " motorc",
  "3789": " slid",
  "3790": " motorcy",
  "3791": "ricket",
  "3792": " barrel",
  "3793": " motorcyc",
  "3794": " motorcycl",
  "3795": " sweate",
  "3796": " ly",
  "3797": " rag",
  "3798": " motorcycle",
  "3799": " lying",
  "3800": " lie",
  "3801": "ruth",
  "3802": " Pop",
  "3803": " scooter",
  "3804": " impa",
  "3805": " oat",
  "3806": " determ",
  "3807": " phot",
  "3808": " photo",
  "3809": " bulb",
  "3810": " flame",
  "3811": " tem",
  "3812": " temp",
  "3813": " support",
  "3814": " pony",
  "3815": " cricket",
  "3816": " homes",
  "3817": " truth",
  "3818": " hook",
  "3819": "uncle",
  "3820": " uncle",
  "3821": " hate",
  "3822": " rubbed",
  "3823": "igato",
  "3824": " purse",
  "3825": " order",
  "3826": " impat",
  "3827": " impatie",
  "3828": " spel",
  "3829": " flap",
  "3830": " spell",
  "3831": " happie",
  "3832": " grown",
  "3833": " adora",
  "3834": " adorab",
  "3835": " adorabl",
  "3836": " cooked",
  "3837": " adorable",
  "3838": " thems",
  "3839": " themse",
  "3840": " themsel",
  "3841": " chalk",
  "3842": " themselves",
  "3843": " impatient",
  "3844": " talle",
  "3845": " celery",
  "3846": " tray",
  "3847": " shells",
  "3848": " peng",
  "3849": " pengu",
  "3850": " pengui",
  "3851": " leas",
  "3852": " walls",
  "3853": " sparkle",
  "3854": " case",
  "3855": " alligato",
  "3856": " distant",
  "3857": " prune",
  "3858": " radish",
  "3859": " saying",
  "3860": " meat",
  "3861": " raise",
  "3862": " pole",
  "3863": " send",
  "3864": " spinning",
  "3865": " forth",
  "3866": " counting",
  "3867": " bounced",
  "3868": " enth",
  "3869": " meta",
  "3870": " cleaning",
  "3871": " ed",
  "3872": " metal",
  "3873": " slep",
  "3874": " slept",
  "3875": " marry",
  "3876": "usia",
  "3877": " walle",
  "3878": " wallet",
  "3879": "usias",
  "3880": " enthusias",
  "3881": " week",
  "3882": "usie",
  "3883": " noteb",
  "3884": " notebo",
  "3885": " noteboo",
  "3886": " notebook",
  "3887": " drawe",
  "3888": " wiped",
  "3889": " bigges",
  "3890": " biggest",
  "3891": " patter",
  "3892": " impro",
  "3893": " mint",
  "3894": " flea",
  "3895": " steak",
  "3896": " rot",
  "3897": " Pol",
  "3898": " eleva",
  "3899": " elevat",
  "3900": " edg",
  "3901": " edge",
  "3902": " elevato",
  "3903": " stac",
  "3904": "rnal",
  "3905": "rred",
  "3906": " armc",
  "3907": " armcha",
  "3908": " armchai",
  "3909": "kipped",
  "3910": " shut",
  "3911": " skipped",
  "3912": " diary",
  "3913": " cit",
  "3914": " elevator",
  "3915": " sneeze",
  "3916": " behave",
  "3917": " zeb",
  "3918": " zebra",
  "3919": " bags",
  "3920": " armchair",
  "3921": " distu",
  "3922": " distur",
  "3923": " disturb",
  "3924": " amb",
  "3925": " oy",
  "3926": " oys",
  "3927": " oyst",
  "3928": " oyste",
  "3929": " swit",
  "3930": " switc",
  "3931": " journal",
  "3932": "iraf",
  "3933": "iraff",
  "3934": "iraffe",
  "3935": " showing",
  "3936": " gathered",
  "3937": " eart",
  "3938": " earth",
  "3939": " Popp",
  "3940": " alligator",
  "3941": "unded",
  "3942": "hunde",
  "3943": " question",
  "3944": " stranger",
  "3945": " sweater",
  "3946": " jellyf",
  "3947": " jellyfis",
  "3948": " jellyfish",
  "3949": "ulance",
  "3950": " screw",
  "3951": " Poppy",
  "3952": "resc",
  "3953": " hunte",
  "3954": " mixer",
  "3955": " gather",
  "3956": "rary",
  "3957": " ambulance",
  "3958": " playg",
  "3959": " playgro",
  "3960": " chain",
  "3961": " fathe",
  "3962": " father",
  "3963": " loudl",
  "3964": " loudly",
  "3965": "brary",
  "3966": "ibrary",
  "3967": " folder",
  "3968": " Lul",
  "3969": " sla",
  "3970": " Lulu",
  "3971": " library",
  "3972": " Peter",
  "3973": " buttons",
  "3974": "rnam",
  "3975": "rname",
  "3976": "rnament",
  "3977": " playground",
  "3978": " trucks",
  "3979": " lights",
  "3980": " tummy",
  "3981": " napk",
  "3982": " napki",
  "3983": " pointing",
  "3984": " city",
  "3985": " split",
  "3986": " itc",
  "3987": " prep",
  "3988": " prepa",
  "3989": " Poll",
  "3990": " falls",
  "3991": " Polly",
  "3992": "Billy",
  "3993": " acorn",
  "3994": " cupb",
  "3995": " cupbo",
  "3996": " cupboa",
  "3997": " cupboard",
  "3998": " Birdy",
  "3999": " ornament",
  "4000": " modes",
  "4001": " modest",
  "4002": " Ka",
  "4003": " knows",
  "4004": "riving",
  "4005": " mosq",
  "4006": " mosqu",
  "4007": " mosquit",
  "4008": " mosquito",
  "4009": " cord",
  "4010": " polish",
  "4011": " giraffe",
  "4012": " sweetie",
  "4013": " ves",
  "4014": " attic",
  "4015": " enco",
  "4016": " wast",
  "4017": "hunder",
  "4018": " vest",
  "4019": " whene",
  "4020": " wheneve",
  "4021": " whenever",
  "4022": " yet",
  "4023": " resc",
  "4024": " disappeared",
  "4025": " packa",
  "4026": " packag",
  "4027": " package",
  "4028": " strawberry",
  "4029": " once",
  "4030": " scrat",
  "4031": " scratc",
  "4032": " brothers",
  "4033": " footb",
  "4034": " footba",
  "4035": " footbal",
  "4036": " football",
  "4037": " carto",
  "4038": " tease",
  "4039": " led",
  "4040": " driving",
  "4041": " handl",
  "4042": " calling",
  "4043": " oct",
  "4044": " octo",
  "4045": " octop",
  "4046": " grandp",
  "4047": " grandpa",
  "4048": " Mis",
  "4049": " handle",
  "4050": " stretch",
  "4051": " deliver",
  "4052": " wishes",
  "4053": " tripped",
  "4054": " coole",
  "4055": " coal",
  "4056": " airp",
  "4057": " root",
  "4058": " Loo",
  "4059": " adde",
  "4060": " octopus",
  "4061": " ske",
  "4062": " added",
  "4063": " auto",
  "4064": " mild",
  "4065": " determined",
  "4066": " succee",
  "4067": " succeed",
  "4068": "tht",
  "4069": "?\".",
  "4070": "uzzy",
  "4071": " trad",
  "4072": " dresse",
  "4073": " sugg",
  "4074": " sugge",
  "4075": " sugges",
  "4076": " suggest",
  "4077": " autom",
  "4078": " repai",
  "4079": " kindne",
  "4080": " kindnes",
  "4081": " kindness",
  "4082": " stack",
  "4083": " automo",
  "4084": " automob",
  "4085": " automobile",
  "4086": " enthusiast",
  "4087": " compla",
  "4088": " enthusiastic",
  "4089": " cartoo",
  "4090": " admi",
  "4091": " yoga",
  "4092": " growl",
  "4093": " fram",
  "4094": " frame",
  "4095": " Lit",
  "4096": " Litt",
  "4097": " Littl",
  "4098": " Little",
  "4099": "thtu",
  "4100": "thtub",
  "4101": " mead",
  "4102": " meado",
  "4103": " meadow",
  "4104": " drawer",
  "4105": " bathtub",
  "4106": " hall",
  "4107": " means",
  "4108": " golf",
  "4109": " skel",
  "4110": " skele",
  "4111": " skelet",
  "4112": " skeleto",
  "4113": " poke",
  "4114": " math",
  "4115": "zine",
  "4116": " jogg",
  "4117": " hunter",
  "4118": "rilla",
  "4119": " vet",
  "4120": " trop",
  "4121": " Bes",
  "4122": " matche",
  "4123": " chess",
  "4124": " cups",
  "4125": " glowing",
  "4126": " mattress",
  "4127": " oyster",
  "4128": " pine",
  "4129": " penny",
  "4130": " itse",
  "4131": " itsel",
  "4132": " itself",
  "4133": " meo",
  "4134": " meow",
  "4135": " drawings",
  "4136": " goal",
  "4137": " hange",
  "4138": " short",
  "4139": " maze",
  "4140": " telep",
  "4141": " telepho",
  "4142": " telephone",
  "4143": " repe",
  "4144": " switch",
  "4145": "iro",
  "4146": " dess",
  "4147": " desse",
  "4148": " dessert",
  "4149": ",\u00e2\u0080\u009d",
  "4150": " meda",
  "4151": " medal",
  "4152": " muffin",
  "4153": " hed",
  "4154": " hedg",
  "4155": " hedge",
  "4156": " repea",
  "4157": " repeat",
  "4158": " pastry",
  "4159": " rolling",
  "4160": " minutes",
  "4161": " powd",
  "4162": " powde",
  "4163": " makeup",
  "4164": " packed",
  "4165": " Peo",
  "4166": " patc",
  "4167": " Peop",
  "4168": " Peopl",
  "4169": " People",
  "4170": " pear",
  "4171": " skeleton",
  "4172": " gea",
  "4173": " Miss",
  "4174": " shocked",
  "4175": " Bess",
  "4176": " trophy",
  "4177": " thunder",
  "4178": "knight",
  "4179": " knight",
  "4180": " gorilla",
  "4181": " curtain",
  "4182": " missile",
  "4183": " managed",
  "4184": " powder",
  "4185": " sep",
  "4186": " check",
  "4187": " stee",
  "4188": " sepa",
  "4189": " separa",
  "4190": " separat",
  "4191": "ruct",
  "4192": " La",
  "4193": "azine",
  "4194": " camp",
  "4195": "ruggl",
  "4196": " magazine",
  "4197": " microp",
  "4198": " micropho",
  "4199": " microphone",
  "4200": " wool",
  "4201": " waste",
  "4202": " struggl",
  "4203": " grapes",
  "4204": " file",
  "4205": " repair",
  "4206": " Cl",
  "4207": " perm",
  "4208": " Tina",
  "4209": " basketb",
  "4210": " basketba",
  "4211": " basketbal",
  "4212": " basketball",
  "4213": " Twe",
  "4214": " mem",
  "4215": "iron",
  "4216": " Twee",
  "4217": " rise",
  "4218": " Tweet",
  "4219": "vend",
  "4220": " messa",
  "4221": " messag",
  "4222": " message",
  "4223": " presse",
  "4224": " leash",
  "4225": " gasp",
  "4226": " rema",
  "4227": "ipper",
  "4228": " weep",
  "4229": "view",
  "4230": " lase",
  "4231": " safel",
  "4232": " safely",
  "4233": " fishe",
  "4234": " trade",
  "4235": " return",
  "4236": "reverse",
  "4237": " view",
  "4238": " trem",
  "4239": " slides",
  "4240": " steps",
  "4241": " Rose",
  "4242": " bananas",
  "4243": " staf",
  "4244": " staff",
  "4245": " toe",
  "4246": " task",
  "4247": " giggled",
  "4248": " hoc",
  "4249": "ncho",
  "4250": " tremb",
  "4251": " trembl",
  "4252": " hocke",
  "4253": " hockey",
  "4254": " vend",
  "4255": " thos",
  "4256": " those",
  "4257": " cooler",
  "4258": " vendo",
  "4259": " early",
  "4260": " spear",
  "4261": " Look",
  "4262": " hote",
  "4263": " hotel",
  "4264": "veh",
  "4265": " veh",
  "4266": " vehic",
  "4267": " vehicl",
  "4268": " vehicle",
  "4269": " oft",
  "4270": " ofte",
  "4271": " often",
  "4272": " cooking",
  "4273": " stretche",
  "4274": "rian",
  "4275": " separate",
  "4276": " tools",
  "4277": " eit",
  "4278": " eithe",
  "4279": " either",
  "4280": " mitten",
  "4281": " firema",
  "4282": " fireman",
  "4283": " ott",
  "4284": " otte",
  "4285": " baseb",
  "4286": " baseba",
  "4287": " basebal",
  "4288": " baseball",
  "4289": " templ",
  "4290": " pis",
  "4291": " pist",
  "4292": " temple",
  "4293": " dishw",
  "4294": " dishwa",
  "4295": " dishwas",
  "4296": " pisto",
  "4297": " pistol",
  "4298": "nchor",
  "4299": " pretending",
  "4300": " dishwashe",
  "4301": " chos",
  "4302": " chose",
  "4303": " vendor",
  "4304": " sight",
  "4305": " knock",
  "4306": " ten",
  "4307": " grill",
  "4308": " sandb",
  "4309": " dishwasher",
  "4310": " opens",
  "4311": " strip",
  "4312": " laser",
  "4313": "inoc",
  "4314": " sandbo",
  "4315": " sandbox",
  "4316": " sy",
  "4317": " blackb",
  "4318": " patch",
  "4319": " conte",
  "4320": "kirt",
  "4321": "rnad",
  "4322": "rnado",
  "4323": "'d",
  "4324": " Bett",
  "4325": " tras",
  "4326": " trash",
  "4327": " skirt",
  "4328": " snea",
  "4329": " anchor",
  "4330": " Betty",
  "4331": " cane",
  "4332": "resis",
  "4333": "resist",
  "4334": " lotio",
  "4335": " resist",
  "4336": "iva",
  "4337": " Dan",
  "4338": " buck",
  "4339": " ward",
  "4340": " cardb",
  "4341": " cardbo",
  "4342": " cardboa",
  "4343": " cardboard",
  "4344": " wardro",
  "4345": " wardrob",
  "4346": " wardrobe",
  "4347": " lotion",
  "4348": "useum",
  "4349": " cell",
  "4350": " suppl",
  "4351": " buckl",
  "4352": " ava",
  "4353": " blackbo",
  "4354": " blackboa",
  "4355": " blackboard",
  "4356": " hanging",
  "4357": "inatio",
  "4358": "ucet",
  "4359": " Sno",
  "4360": "ilab",
  "4361": " buckle",
  "4362": "ilabl",
  "4363": "ilable",
  "4364": " fog",
  "4365": " cof",
  "4366": " coff",
  "4367": " towers",
  "4368": " coffe",
  "4369": " coffee",
  "4370": " museum",
  "4371": " excitem",
  "4372": " exciteme",
  "4373": " excitement",
  "4374": "Fluffy",
  "4375": " explai",
  "4376": " vanis",
  "4377": " napkin",
  "4378": " penguin",
  "4379": " iron",
  "4380": " Pippi",
  "4381": " Pippin",
  "4382": " picking",
  "4383": " chim",
  "4384": " Snow",
  "4385": "zor",
  "4386": " faucet",
  "4387": " passp",
  "4388": " passpo",
  "4389": " passport",
  "4390": " Bessie",
  "4391": " igl",
  "4392": " iglo",
  "4393": " igloo",
  "4394": "uicy",
  "4395": " juicy",
  "4396": " allowe",
  "4397": " allowed",
  "4398": " holds",
  "4399": " alre",
  "4400": " alrea",
  "4401": " alread",
  "4402": " already",
  "4403": " available",
  "4404": " tornado",
  "4405": " mule",
  "4406": "inet",
  "4407": " fingers",
  "4408": " reminde",
  "4409": "undry",
  "4410": "htra",
  "4411": "htray",
  "4412": " settl",
  "4413": " hanger",
  "4414": " newsp",
  "4415": " newspa",
  "4416": " newspap",
  "4417": " newspape",
  "4418": " lend",
  "4419": " chimne",
  "4420": " chimney",
  "4421": " reverse",
  "4422": " laundry",
  "4423": " imagine",
  "4424": " oak",
  "4425": " Ge",
  "4426": " Everyw",
  "4427": " Everywhe",
  "4428": " Everywhere",
  "4429": " telling",
  "4430": " disp",
  "4431": " micros",
  "4432": " microsc",
  "4433": " microsco",
  "4434": " microscop",
  "4435": " cras",
  "4436": " nove",
  "4437": " novel",
  "4438": " microscope",
  "4439": " mummy",
  "4440": " cherries",
  "4441": " sham",
  "4442": " spille",
  "4443": " spilled",
  "4444": "reind",
  "4445": "reinde",
  "4446": "reindee",
  "4447": " reindee",
  "4448": " wander",
  "4449": " otter",
  "4450": "irep",
  "4451": " fisherm",
  "4452": " peek",
  "4453": "irepl",
  "4454": "irepla",
  "4455": "ireplac",
  "4456": "ireplace",
  "4457": "hurry",
  "4458": " valu",
  "4459": " displ",
  "4460": " fireplace",
  "4461": " displa",
  "4462": " display",
  "4463": " slap",
  "4464": "hinoc",
  "4465": "hinoce",
  "4466": "hinocero",
  "4467": " Zip",
  "4468": " fastes",
  "4469": " fastest",
  "4470": "binet",
  "4471": "hinoceros",
  "4472": " repla",
  "4473": " hurry",
  "4474": " men",
  "4475": " cabinet",
  "4476": " ashtray",
  "4477": " cows",
  "4478": " replac",
  "4479": " pala",
  "4480": " settle",
  "4481": " palac",
  "4482": " palace",
  "4483": " encourage",
  "4484": " improve",
  "4485": " cree",
  "4486": " rake",
  "4487": " reindeer",
  "4488": " falling",
  "4489": "ilet",
  "4490": " discovered",
  "4491": " stared",
  "4492": " roared",
  "4493": " memo",
  "4494": " expec",
  "4495": " expect",
  "4496": " bill",
  "4497": "rhinoceros",
  "4498": " rhinoceros",
  "4499": "umme",
  "4500": "ictiona",
  "4501": " ax",
  "4502": " itch",
  "4503": " hut",
  "4504": " happier",
  "4505": " toilet",
  "4506": " taller",
  "4507": "ination",
  "4508": "inera",
  "4509": "ineral",
  "4510": " obj",
  "4511": " obje",
  "4512": " objec",
  "4513": " object",
  "4514": "ictionary",
  "4515": " oats",
  "4516": " fisherma",
  "4517": " fisherman",
  "4518": " musta",
  "4519": " valua",
  "4520": " valuab",
  "4521": " valuabl",
  "4522": " valuable",
  "4523": "fum",
  "4524": " axe",
  "4525": "fume",
  "4526": "rfume",
  "4527": " shamp",
  "4528": " shampo",
  "4529": " shampoo",
  "4530": " holes",
  "4531": " offered",
  "4532": " boots",
  "4533": " replace",
  "4534": " shak",
  "4535": " names",
  "4536": " climbing",
  "4537": "vice",
  "4538": " stretched",
  "4539": "zipper",
  "4540": " zipper",
  "4541": " perfume",
  "4542": " televis",
  "4543": " televisio",
  "4544": " spoke",
  "4545": " mineral",
  "4546": " listening",
  "4547": " jokes",
  "4548": " jewelry",
  "4549": " Here",
  "4550": " neat",
  "4551": " sym",
  "4552": " television",
  "4553": " cale",
  "4554": " calend",
  "4555": " calenda",
  "4556": " fue",
  "4557": " fuel",
  "4558": " stops",
  "4559": " jumps",
  "4560": " Bee",
  "4561": " sparkly",
  "4562": " Susie",
  "4563": " mustac",
  "4564": " mustache",
  "4565": " shoulde",
  "4566": " trail",
  "4567": " bury",
  "4568": " obs",
  "4569": "Mummy",
  "4570": " resto",
  "4571": " Kim",
  "4572": " anywa",
  "4573": " anyway",
  "4574": " pressed",
  "4575": " supe",
  "4576": " poppe",
  "4577": "ival",
  "4578": " creek",
  "4579": " popped",
  "4580": "zag",
  "4581": " calendar",
  "4582": " gaspe",
  "4583": " gasped",
  "4584": " complai",
  "4585": " symb",
  "4586": " symbo",
  "4587": " tuna",
  "4588": " symbol",
  "4589": " papers",
  "4590": " dictionary",
  "4591": " letters",
  "4592": " freezer",
  "4593": " gear",
  "4594": " cheer",
  "4595": " squeeze",
  "4596": "Ouc",
  "4597": "Ouch",
  "4598": "nclud",
  "4599": " Sha",
  "4600": " helper",
  "4601": " ala",
  "4602": " pand",
  "4603": "Carl",
  "4604": " panda",
  "4605": " tightl",
  "4606": " tightly",
  "4607": " bookc",
  "4608": " bookca",
  "4609": " bookcas",
  "4610": " bookcase",
  "4611": " shaking",
  "4612": " razor",
  "4613": " sandwiche",
  "4614": " sandwiches",
  "4615": "urant",
  "4616": "aurant",
  "4617": " billb",
  "4618": " billbo",
  "4619": " billboa",
  "4620": " billboard",
  "4621": " tug",
  "4622": "igzag",
  "4623": " ext",
  "4624": " against",
  "4625": " stickers",
  "4626": " restaurant",
  "4627": " newspaper",
  "4628": "includ",
  "4629": "irred",
  "4630": " blouse",
  "4631": " swinging",
  "4632": " ped",
  "4633": " disag",
  "4634": " disagree",
  "4635": " natu",
  "4636": " nature",
  "4637": " squirrels",
  "4638": " belongs",
  "4639": " swamp",
  "4640": " butterflie",
  "4641": " butterflies",
  "4642": " gy",
  "4643": " gym",
  "4644": " includ",
  "4645": " growing",
  "4646": " Dol",
  "4647": " Sq",
  "4648": " stirred",
  "4649": " praye",
  "4650": " beep",
  "4651": " alarm",
  "4652": " lightning",
  "4653": " lip",
  "4654": " fes",
  "4655": " fest",
  "4656": " obse",
  "4657": " distance",
  "4658": "utor",
  "4659": " cards",
  "4660": " obser",
  "4661": " peda",
  "4662": " pedal",
  "4663": " super",
  "4664": " sofa",
  "4665": " festival",
  "4666": " doesn",
  "4667": " musicia",
  "4668": " advice",
  "4669": " Doll",
  "4670": " rubber",
  "4671": " beef",
  "4672": " lick",
  "4673": " model",
  "4674": " apro",
  "4675": " blueberries",
  "4676": " attach",
  "4677": " bookshe",
  "4678": " bookshel",
  "4679": " tutor",
  "4680": " lands",
  "4681": " printe",
  "4682": " shelt",
  "4683": " shelte",
  "4684": " airpo",
  "4685": " airport",
  "4686": " Big",
  "4687": " drai",
  "4688": "ummer",
  "4689": " provide",
  "4690": " rail",
  "4691": " Pand",
  "4692": " bookshelf",
  "4693": " frogs",
  "4694": " thea",
  "4695": " theat",
  "4696": " rescue",
  "4697": "riding",
  "4698": " teasp",
  "4699": " teaspo",
  "4700": " teaspoo",
  "4701": " shelter",
  "4702": " riding",
  "4703": "Cha",
  "4704": " ree",
  "4705": " pleased",
  "4706": " Mrs",
  "4707": " oas",
  "4708": " drain",
  "4709": " oasis",
  "4710": " soil",
  "4711": " spoil",
  "4712": " ahe",
  "4713": " ahea",
  "4714": " ahead",
  "4715": " explain",
  "4716": " leaving",
  "4717": " Tedd",
  "4718": " chance",
  "4719": " poked",
  "4720": " Teddy",
  "4721": " knob",
  "4722": " peeked",
  "4723": " trains",
  "4724": "icense",
  "4725": " extra",
  "4726": " paste",
  "4727": "refused",
  "4728": " refused",
  "4729": " Frog",
  "4730": " musician",
  "4731": " Grandp",
  "4732": " Grandpa",
  "4733": "rina",
  "4734": " rules",
  "4735": " happens",
  "4736": " sounded",
  "4737": " wint",
  "4738": " winte",
  "4739": " dancer",
  "4740": " birdc",
  "4741": " birdca",
  "4742": " birdcag",
  "4743": " birdcage",
  "4744": " Dolly",
  "4745": " teaspoon",
  "4746": " weat",
  "4747": " weathe",
  "4748": " theate",
  "4749": " weather",
  "4750": " painter",
  "4751": " reef",
  "4752": " theater",
  "4753": " carrying",
  "4754": " winter",
  "4755": " license",
  "4756": " os",
  "4757": " ost",
  "4758": " ostr",
  "4759": " ostric",
  "4760": " swu",
  "4761": " swung",
  "4762": " Pat",
  "4763": " wig",
  "4764": "rend",
  "4765": " leane",
  "4766": " Pandy",
  "4767": " leaned",
  "4768": " olde",
  "4769": " lawn",
  "4770": "ipping",
  "4771": " accidenta",
  "4772": " accidental",
  "4773": " discover",
  "4774": " accidentall",
  "4775": " accidentally",
  "4776": " pastel",
  "4777": "Ya",
  "4778": " stom",
  "4779": " lang",
  "4780": " langu",
  "4781": " langua",
  "4782": " languag",
  "4783": " language",
  "4784": " twirl",
  "4785": "rende",
  "4786": " cham",
  "4787": "rrende",
  "4788": "urrende",
  "4789": " ceil",
  "4790": " ceiling",
  "4791": " suffe",
  "4792": " starts",
  "4793": " Lee",
  "4794": " anywhe",
  "4795": " anywhere",
  "4796": " therm",
  "4797": " thermo",
  "4798": "!\".",
  "4799": " imagined",
  "4800": " remove",
  "4801": " Hel",
  "4802": " shower",
  "4803": " classro",
  "4804": " classroo",
  "4805": " classroom",
  "4806": " thermom",
  "4807": " thermome",
  "4808": " thermomet",
  "4809": " thermomete",
  "4810": " admire",
  "4811": "uncy",
  "4812": " missing",
  "4813": " thermometer",
  "4814": " Where",
  "4815": " summer",
  "4816": " Carl",
  "4817": "unse",
  "4818": " problems",
  "4819": " disappear",
  "4820": " labe",
  "4821": " label",
  "4822": " respectful",
  "4823": " struggle",
  "4824": " chasing",
  "4825": " apron",
  "4826": " sent",
  "4827": " lawy",
  "4828": " lawye",
  "4829": " lid",
  "4830": " brighte",
  "4831": "revent",
  "4832": " meeting",
  "4833": " zoome",
  "4834": " frowne",
  "4835": "unset",
  "4836": " frowned",
  "4837": " zoomed",
  "4838": "erina",
  "4839": " scatter",
  "4840": " lug",
  "4841": " lugg",
  "4842": " pages",
  "4843": " bent",
  "4844": " prevent",
  "4845": " pattern",
  "4846": " Ea",
  "4847": " lugga",
  "4848": " luggag",
  "4849": " luggage",
  "4850": " leak",
  "4851": " chamb",
  "4852": " chambe",
  "4853": " mistakes",
  "4854": " sunset",
  "4855": " ostrich",
  "4856": " suggeste",
  "4857": " suggested",
  "4858": " wine",
  "4859": " windows",
  "4860": " Se",
  "4861": " Red",
  "4862": " Spe",
  "4863": " older",
  "4864": " pause",
  "4865": " shouts",
  "4866": " wigg",
  "4867": " wiggl",
  "4868": "ructu",
  "4869": " structu",
  "4870": "nsis",
  "4871": "nsist",
  "4872": " jail",
  "4873": " fixing",
  "4874": " chamber",
  "4875": "insist",
  "4876": " lions",
  "4877": " insist",
  "4878": " finds",
  "4879": " dela",
  "4880": " delay",
  "4881": " hande",
  "4882": " handed",
  "4883": " searching",
  "4884": " fought",
  "4885": " Sta",
  "4886": " lawyer",
  "4887": " brightl",
  "4888": " brightly",
  "4889": " choice",
  "4890": " art",
  "4891": " surprises",
  "4892": " rele",
  "4893": " Ellie",
  "4894": " spad",
  "4895": " spade",
  "4896": " favou",
  "4897": " stad",
  "4898": " stadi",
  "4899": " ranc",
  "4900": "vea",
  "4901": " Bow",
  "4902": " stadium",
  "4903": " proudl",
  "4904": " proudly",
  "4905": " include",
  "4906": " ene",
  "4907": "veal",
  "4908": " veterina",
  "4909": " relea",
  "4910": " releas",
  "4911": " chairs",
  "4912": " favourite",
  "4913": " sadl",
  "4914": " sadly",
  "4915": "lvet",
  "4916": " veterinarian",
  "4917": " Fox",
  "4918": " puddles",
  "4919": " berry",
  "4920": "reveal",
  "4921": " intro",
  "4922": " introd",
  "4923": "uma",
  "4924": " flapp",
  "4925": " ranch",
  "4926": " tick",
  "4927": " Spee",
  "4928": " Speed",
  "4929": " admired",
  "4930": " steam",
  "4931": " reveal",
  "4932": " V",
  "4933": "urrender",
  "4934": " excitedl",
  "4935": " excitedly",
  "4936": " Fredd",
  "4937": " grabs",
  "4938": " saving",
  "4939": " mal",
  "4940": "huma",
  "4941": " huma",
  "4942": "rsit",
  "4943": "versit",
  "4944": "vening",
  "4945": "Charl",
  "4946": " evening",
  "4947": "iversit",
  "4948": " pushing",
  "4949": "iversity",
  "4950": " yie",
  "4951": " yiel",
  "4952": " yield",
  "4953": " mall",
  "4954": " reminded",
  "4955": " putt",
  "4956": " regret",
  "4957": " apo",
  "4958": " apol",
  "4959": " apolo",
  "4960": " apolog",
  "4961": "niversity",
  "4962": " weap",
  "4963": " weapo",
  "4964": " putting",
  "4965": " vall",
  "4966": " valle",
  "4967": " valley",
  "4968": " release",
  "4969": " dais",
  "4970": " Kat",
  "4971": " matches",
  "4972": "kill",
  "4973": " sneezed",
  "4974": "vro",
  "4975": "vroo",
  "4976": "vroom",
  "4977": " plas",
  "4978": " plast",
  "4979": " discus",
  "4980": " discuss",
  "4981": " plates",
  "4982": " row",
  "4983": " country",
  "4984": " Buzzy",
  "4985": " pulls",
  "4986": " plastic",
  "4987": " structure",
  "4988": " supply",
  "4989": " prepare",
  "4990": " appla",
  "4991": " cartoon",
  "4992": " introduce",
  "4993": " Next",
  "4994": " cared",
  "4995": " twin",
  "4996": " doors",
  "4997": " mystery",
  "4998": " lives",
  "4999": " sticker",
  "5000": " restore",
  "5001": " sudden",
  "5002": " Bubble",
  "5003": "ippery",
  "5004": " kinds",
  "5005": " slippery",
  "5006": " Ow",
  "5007": " player",
  "5008": " hoping",
  "5009": "hero",
  "5010": " ignore",
  "5011": " shone",
  "5012": " fear",
  "5013": " superhero",
  "5014": " delighte",
  "5015": " delighted",
  "5016": "Yay",
  "5017": " chickens",
  "5018": " colourful",
  "5019": " shoulder",
  "5020": "Yuck",
  "5021": " rained",
  "5022": " Alice",
  "5023": " claw",
  "5024": " Bubbles",
  "5025": "nrise",
  "5026": "unrise",
  "5027": " softl",
  "5028": " softly",
  "5029": " fres",
  "5030": " complain",
  "5031": " port",
  "5032": " sunrise",
  "5033": " holid",
  "5034": " holida",
  "5035": " holiday",
  "5036": " Cla",
  "5037": " throwing",
  "5038": " planes",
  "5039": " Freddy",
  "5040": " bend",
  "5041": " ende",
  "5042": " shakes",
  "5043": " fresh",
  "5044": " ended",
  "5045": " sneak",
  "5046": " pushes",
  "5047": " thanks",
  "5048": " image",
  "5049": " suffer",
  "5050": "nha",
  "5051": " points",
  "5052": " copp",
  "5053": " coppe",
  "5054": " tremble",
  "5055": " Speedy",
  "5056": " keeping",
  "5057": " dishe",
  "5058": " Would",
  "5059": "iverse",
  "5060": " copper",
  "5061": "niverse",
  "5062": " Mill",
  "5063": " smells",
  "5064": " heads",
  "5065": " enter",
  "5066": " mass",
  "5067": " spraye",
  "5068": " dishes",
  "5069": " warning",
  "5070": " End",
  "5071": " surrender",
  "5072": " applaud",
  "5073": "unha",
  "5074": " cherry",
  "5075": " x",
  "5076": " menu",
  "5077": " meowe",
  "5078": " meowed",
  "5079": " seco",
  "5080": " second",
  "5081": " brighter",
  "5082": " seas",
  "5083": " sandc",
  "5084": " sandca",
  "5085": " mec",
  "5086": " mecha",
  "5087": " mechan",
  "5088": " mechanic",
  "5089": " sandcas",
  "5090": " sandcast",
  "5091": " sandcastl",
  "5092": " sandcastle",
  "5093": " soak",
  "5094": " greed",
  "5095": " grant",
  "5096": " sprayed",
  "5097": " letting",
  "5098": " weapon",
  "5099": " unha",
  "5100": " laughter",
  "5101": " Hopp",
  "5102": " clapping",
  "5103": " feelings",
  "5104": " dear",
  "5105": " splashing",
  "5106": "universe",
  "5107": " castles",
  "5108": " massa",
  "5109": " massag",
  "5110": " universe",
  "5111": " unhap",
  "5112": " unhapp",
  "5113": " flie",
  "5114": " navy",
  "5115": " massage",
  "5116": " sticky",
  "5117": " dem",
  "5118": " rooms",
  "5119": " ali",
  "5120": " flies",
  "5121": " human",
  "5122": " Dave",
  "5123": " unhappy",
  "5124": " permit",
  "5125": " eate",
  "5126": " jogge",
  "5127": " greedy",
  "5128": " Rob",
  "5129": " alive",
  "5130": " ener",
  "5131": " energ",
  "5132": " courage",
  "5133": " crosse",
  "5134": " dema",
  "5135": " demand",
  "5136": " somew",
  "5137": "req",
  "5138": " Help",
  "5139": " ment",
  "5140": " remai",
  "5141": " truste",
  "5142": " trusted",
  "5143": " wiggle",
  "5144": " somewhe",
  "5145": " somewhere",
  "5146": " heat",
  "5147": " ash",
  "5148": " natio",
  "5149": "Charlie",
  "5150": " mentio",
  "5151": " groc",
  "5152": " groce",
  "5153": " skill",
  "5154": " parts",
  "5155": " tickl",
  "5156": " Luck",
  "5157": " brai",
  "5158": "ipm",
  "5159": " eaten",
  "5160": "nry",
  "5161": " req",
  "5162": "Buddy",
  "5163": " throws",
  "5164": " jogged",
  "5165": " starting",
  "5166": " pois",
  "5167": "university",
  "5168": " bumpe",
  "5169": " poiso",
  "5170": "hrugg",
  "5171": " shrugg",
  "5172": " chirp",
  "5173": " pirates",
  "5174": " content",
  "5175": " vac",
  "5176": "url",
  "5177": "uncing",
  "5178": " atte",
  "5179": " sport",
  "5180": " flappe",
  "5181": " flapped",
  "5182": " drops",
  "5183": " rang",
  "5184": "reng",
  "5185": " sparkled",
  "5186": "rengt",
  "5187": " Zoomy",
  "5188": " strengt",
  "5189": " steel",
  "5190": " Lill",
  "5191": " bumped",
  "5192": " yawne",
  "5193": " yawned",
  "5194": " Lol",
  "5195": " reque",
  "5196": " reques",
  "5197": " request",
  "5198": " cuddle",
  "5199": " scol",
  "5200": " scold",
  "5201": " myse",
  "5202": " mysel",
  "5203": " myself",
  "5204": " frown",
  "5205": " strength",
  "5206": " shrugge",
  "5207": " shrugged",
  "5208": " coats",
  "5209": " eq",
  "5210": " equ",
  "5211": " university",
  "5212": " pigs",
  "5213": " upst",
  "5214": " paid",
  "5215": " Johnny",
  "5216": " Ta",
  "5217": " exe",
  "5218": " exer",
  "5219": " exerc",
  "5220": " exercis",
  "5221": " tracks",
  "5222": " upsta",
  "5223": " upstai",
  "5224": " upstairs",
  "5225": " Sop",
  "5226": " prayed",
  "5227": " crossed",
  "5228": " squeezed",
  "5229": " impresse",
  "5230": " Soph",
  "5231": " impressed",
  "5232": " flood",
  "5233": " danger",
  "5234": " tide",
  "5235": " bouncing",
  "5236": "rhy",
  "5237": " rhy",
  "5238": " rabbits",
  "5239": " badl",
  "5240": " badly",
  "5241": " leat",
  "5242": " leathe",
  "5243": " leather",
  "5244": " score",
  "5245": "riting",
  "5246": " vaca",
  "5247": " vacat",
  "5248": " vacatio",
  "5249": " bears",
  "5250": " claws",
  "5251": " sweethe",
  "5252": " sweethea",
  "5253": " sweetheart",
  "5254": " remain",
  "5255": " nation",
  "5256": " Sm",
  "5257": " curl",
  "5258": " observe",
  "5259": "usc",
  "5260": " Sl",
  "5261": " hist",
  "5262": " histo",
  "5263": "Coc",
  "5264": " strawberries",
  "5265": " vacation",
  "5266": " explored",
  "5267": "Coco",
  "5268": " horses",
  "5269": " Lola",
  "5270": " history",
  "5271": " Lilly",
  "5272": " Mummy",
  "5273": "uscl",
  "5274": "uscle",
  "5275": " neighbou",
  "5276": " Sque",
  "5277": " believed",
  "5278": " Hoppy",
  "5279": " insiste",
  "5280": " Mand",
  "5281": " checked",
  "5282": " Mandy",
  "5283": " Und",
  "5284": " netw",
  "5285": " netwo",
  "5286": " networ",
  "5287": " network",
  "5288": " Unde",
  "5289": " cheek",
  "5290": "Not",
  "5291": " offer",
  "5292": " snowb",
  "5293": " snowba",
  "5294": " easily",
  "5295": " placed",
  "5296": " spots",
  "5297": " safa",
  "5298": " snowbal",
  "5299": " snowball",
  "5300": " yuck",
  "5301": " exercise",
  "5302": " Under",
  "5303": " poison",
  "5304": " energy",
  "5305": " blueberry",
  "5306": " betw",
  "5307": " betwe",
  "5308": " betwee",
  "5309": " between",
  "5310": " daisy",
  "5311": " waving",
  "5312": " vroom",
  "5313": " safar",
  "5314": " safari",
  "5315": " rhyt",
  "5316": " rhyth",
  "5317": " rhythm",
  "5318": " Za",
  "5319": " twiste",
  "5320": " stoma",
  "5321": " stomac",
  "5322": " bak",
  "5323": " baking",
  "5324": " writing",
  "5325": " nightm",
  "5326": " nightma",
  "5327": " insisted",
  "5328": " blowing",
  "5329": " muscle",
  "5330": " entered",
  "5331": " beauty",
  "5332": " palm",
  "5333": " stomach",
  "5334": " twisted",
  "5335": " bothe",
  "5336": " prunes",
  "5337": " scoop",
  "5338": " hills",
  "5339": " ing",
  "5340": "ipme",
  "5341": "ipment",
  "5342": " See",
  "5343": " invita",
  "5344": " invitat",
  "5345": " invitatio",
  "5346": " Shar",
  "5347": " poppy",
  "5348": " pitc",
  "5349": " brain",
  "5350": " nob",
  "5351": " afterno",
  "5352": " afternoo",
  "5353": " esp",
  "5354": " equipment",
  "5355": " espe",
  "5356": " especial",
  "5357": " especiall",
  "5358": " especially",
  "5359": " calls",
  "5360": " pad",
  "5361": " ingred",
  "5362": " ingredie",
  "5363": " ingredient",
  "5364": " earthq",
  "5365": " earthqu",
  "5366": " earthqua",
  "5367": " earthquake",
  "5368": " yawn",
  "5369": " ignored",
  "5370": " Snowy",
  "5371": " nobo",
  "5372": " nobod",
  "5373": " nobody",
  "5374": " seaso",
  "5375": " sty",
  "5376": " sew",
  "5377": " styl",
  "5378": " Geo",
  "5379": " afternoon",
  "5380": " hearts",
  "5381": " mailm",
  "5382": " lemona",
  "5383": " lemonad",
  "5384": " lemonade",
  "5385": " Jam",
  "5386": " learnt",
  "5387": " Geor",
  "5388": " Georg",
  "5389": " tickle",
  "5390": " shopke",
  "5391": " shopkee",
  "5392": " shopkeep",
  "5393": " shopkeepe",
  "5394": " Grac",
  "5395": " Squea",
  "5396": " backp",
  "5397": " backpa",
  "5398": " backpac",
  "5399": " backpack",
  "5400": " mailma",
  "5401": " mailman",
  "5402": " Squeak",
  "5403": " Ste",
  "5404": " whistled",
  "5405": " Sk",
  "5406": " shopkeeper",
  "5407": " yucky",
  "5408": " moves",
  "5409": " cape",
  "5410": " hee",
  "5411": " lemons",
  "5412": " crash",
  "5413": " stit",
  "5414": " stitc",
  "5415": " mam",
  "5416": " floate",
  "5417": " floated",
  "5418": "urried",
  "5419": " Me",
  "5420": " traf",
  "5421": " traff",
  "5422": " traffic",
  "5423": " excl",
  "5424": " racing",
  "5425": " Lucky",
  "5426": " wisd",
  "5427": " wisdo",
  "5428": " wisdom",
  "5429": " digg",
  "5430": " wags",
  "5431": " excla",
  "5432": "hined",
  "5433": " exclaim",
  "5434": " Ale",
  "5435": " George",
  "5436": " capt",
  "5437": " mama",
  "5438": " price",
  "5439": " following",
  "5440": " style",
  "5441": " Who",
  "5442": " imagination",
  "5443": " below",
  "5444": "urthe",
  "5445": " Elly",
  "5446": " Have",
  "5447": " pitch",
  "5448": "uried",
  "5449": "house",
  "5450": " weight",
  "5451": " exclaime",
  "5452": " exclaimed",
  "5453": " buried",
  "5454": " follows",
  "5455": " ingredients",
  "5456": "rria",
  "5457": "rriag",
  "5458": "rriage",
  "5459": " candles",
  "5460": " furthe",
  "5461": " deepe",
  "5462": " teaching",
  "5463": " Owl",
  "5464": " Alex",
  "5465": " Wed",
  "5466": " Wedne",
  "5467": " Wednes",
  "5468": " Wednesd",
  "5469": " Wednesda",
  "5470": " Wednesday",
  "5471": " apa",
  "5472": " apart",
  "5473": " growle",
  "5474": " growled",
  "5475": " sim",
  "5476": " folded",
  "5477": " hopes",
  "5478": " closel",
  "5479": " closely",
  "5480": " heel",
  "5481": " Sund",
  "5482": " Sunda",
  "5483": " Sunday",
  "5484": "zigzag",
  "5485": " zigzag",
  "5486": " pulling",
  "5487": " bouncy",
  "5488": " Q",
  "5489": " Mit",
  "5490": " chewe",
  "5491": " operat",
  "5492": " further",
  "5493": " chewed",
  "5494": " digging",
  "5495": " winning",
  "5496": " quac",
  "5497": " Goo",
  "5498": " dresses",
  "5499": " Coco",
  "5500": " Is",
  "5501": " shouting",
  "5502": " grocery",
  "5503": " twisty",
  "5504": " attent",
  "5505": "nsta",
  "5506": " peanuts",
  "5507": " puzzles",
  "5508": " Frogg",
  "5509": "Che",
  "5510": " scratche",
  "5511": " chores",
  "5512": " whisper",
  "5513": " operatio",
  "5514": " Froggy",
  "5515": " Till",
  "5516": " snapp",
  "5517": " snail",
  "5518": " acorns",
  "5519": " worms",
  "5520": " deeper",
  "5521": " simp",
  "5522": " simpl",
  "5523": " scratch",
  "5524": " Mitt",
  "5525": " Whene",
  "5526": " Wheneve",
  "5527": " Whenever",
  "5528": " Squeaky",
  "5529": " Tilly",
  "5530": " plante",
  "5531": " Grace",
  "5532": " attentio",
  "5533": " planted",
  "5534": " attention",
  "5535": " underg",
  "5536": " undergro",
  "5537": " Mitte",
  "5538": " cutt",
  "5539": " landsc",
  "5540": " landsca",
  "5541": " landscap",
  "5542": " landscape",
  "5543": " Danny",
  "5544": " operation",
  "5545": " underground",
  "5546": " quite",
  "5547": " vanishe",
  "5548": " lec",
  "5549": " lect",
  "5550": " lectu",
  "5551": " Wat",
  "5552": " Mittens",
  "5553": " blood",
  "5554": " Pen",
  "5555": " washing",
  "5556": " hurting",
  "5557": " vanished",
  "5558": " dressed",
  "5559": " invitation",
  "5560": " sile",
  "5561": " solved",
  "5562": "\u00e2\u0080\u0093",
  "5563": " licks",
  "5564": " Sharing",
  "5565": " marriage",
  "5566": " De",
  "5567": " awe",
  "5568": " peta",
  "5569": " petal",
  "5570": " quietl",
  "5571": " quietly",
  "5572": " Roc",
  "5573": "ucked",
  "5574": " Paul",
  "5575": "ciat",
  "5576": " elephants",
  "5577": "reciat",
  "5578": " Boo",
  "5579": " Ke",
  "5580": " dried",
  "5581": " falle",
  "5582": " fallen",
  "5583": " bang",
  "5584": " neighbour",
  "5585": " mice",
  "5586": " appreciat",
  "5587": " Sophie",
  "5588": "unat",
  "5589": " bother",
  "5590": " wort",
  "5591": " Joey",
  "5592": " \u00e2\u0080\u0093",
  "5593": " eagerl",
  "5594": " eagerly",
  "5595": " Bounce",
  "5596": " ox",
  "5597": " paused",
  "5598": " counter",
  "5599": " Good",
  "5600": " Penny",
  "5601": " worth",
  "5602": "uffed",
  "5603": " oxy",
  "5604": " oxyg",
  "5605": " oxyge",
  "5606": " oxygen",
  "5607": "unate",
  "5608": " shined",
  "5609": " Zara",
  "5610": " plays",
  "5611": " oh",
  "5612": " kisses",
  "5613": " bricks",
  "5614": " Tue",
  "5615": " Tues",
  "5616": " Tuesd",
  "5617": " Tuesda",
  "5618": " Tuesday",
  "5619": " ideas",
  "5620": " wobb",
  "5621": " wobbl",
  "5622": " nightmare",
  "5623": " Pap",
  "5624": " Rock",
  "5625": " Spa",
  "5626": " seeing",
  "5627": "Yum",
  "5628": " exit",
  "5629": " accepte",
  "5630": " accepted",
  "5631": " hiss",
  "5632": "rtunate",
  "5633": " muddy",
  "5634": " memory",
  "5635": " tomatoe",
  "5636": " married",
  "5637": " tomatoes",
  "5638": " wagging",
  "5639": " fash",
  "5640": " Charlie",
  "5641": "rence",
  "5642": " wandered",
  "5643": " gloves",
  "5644": " capta",
  "5645": " captai",
  "5646": " pillows",
  "5647": " respo",
  "5648": "rtunatel",
  "5649": "rtunately",
  "5650": "zipped",
  "5651": " Everything",
  "5652": " petals",
  "5653": " watered",
  "5654": "ux",
  "5655": " Eventually",
  "5656": " guesse",
  "5657": " destroye",
  "5658": " cakes",
  "5659": " vanish",
  "5660": " Bluey",
  "5661": " lips",
  "5662": " lecture",
  "5663": " destroyed",
  "5664": " worse",
  "5665": " hadn",
  "5666": " printer",
  "5667": " hits",
  "5668": " experie",
  "5669": "velvet",
  "5670": " velvet",
  "5671": " Papa",
  "5672": " captain",
  "5673": " catching",
  "5674": " scattered",
  "5675": " memories",
  "5676": " sorts",
  "5677": " pears",
  "5678": " scolde",
  "5679": " scolded",
  "5680": " bones",
  "5681": " oranges",
  "5682": " snappe",
  "5683": " seats",
  "5684": " sits",
  "5685": " snapped",
  "5686": "erence",
  "5687": " experience",
  "5688": " gazed",
  "5689": " raised",
  "5690": "ference",
  "5691": " easie",
  "5692": "Surprise",
  "5693": " zipped",
  "5694": " fashio",
  "5695": " pies",
  "5696": " prints",
  "5697": " shot",
  "5698": " sliding",
  "5699": " God",
  "5700": " easier",
  "5701": "icto",
  "5702": " skills",
  "5703": " dese",
  "5704": " Sand",
  "5705": " climbs",
  "5706": " twirle",
  "5707": " twirled",
  "5708": " fet",
  "5709": " fetc",
  "5710": " blankets",
  "5711": "Chick",
  "5712": " padd",
  "5713": " baked",
  "5714": " lux",
  "5715": "fference",
  "5716": "ifference",
  "5717": " difference",
  "5718": " golde",
  "5719": " golden",
  "5720": " froze",
  "5721": " cutting",
  "5722": " oli",
  "5723": " olive",
  "5724": " beam",
  "5725": " nowhe",
  "5726": " nowhere",
  "5727": "ortunately",
  "5728": " fashion",
  "5729": " dared",
  "5730": " squea",
  "5731": " Henry",
  "5732": " bites",
  "5733": " Harry",
  "5734": " celebrated",
  "5735": "Out",
  "5736": " season",
  "5737": " straight",
  "5738": " Wig",
  "5739": " paddl",
  "5740": " sorting",
  "5741": " Wigg",
  "5742": " blee",
  "5743": " bleed",
  "5744": " collecte",
  "5745": " collected",
  "5746": " Wiggl",
  "5747": " Wal",
  "5748": " welcomed",
  "5749": " attache",
  "5750": " eme",
  "5751": " visite",
  "5752": " visited",
  "5753": " spoons",
  "5754": " jogging",
  "5755": " emer",
  "5756": " emerg",
  "5757": " simple",
  "5758": " decoratio",
  "5759": " Spar",
  "5760": " Spark",
  "5761": " isn",
  "5762": " tong",
  "5763": " since",
  "5764": " tongue",
  "5765": " zero",
  "5766": " emerge",
  "5767": " trapp",
  "5768": " prettie",
  "5769": " collectio",
  "5770": " Tony",
  "5771": "uzy",
  "5772": " attached",
  "5773": " weeping",
  "5774": " beds",
  "5775": " Bab",
  "5776": "ingd",
  "5777": "ingdo",
  "5778": "ingdom",
  "5779": " luxury",
  "5780": " Eac",
  "5781": " Each",
  "5782": " shouldn",
  "5783": " guessed",
  "5784": " Jes",
  "5785": " stitch",
  "5786": " stuffed",
  "5787": " pets",
  "5788": " napp",
  "5789": " slice",
  "5790": " wais",
  "5791": " waist",
  "5792": " bowe",
  "5793": " famil",
  "5794": " bowed",
  "5795": " selling",
  "5796": " Smit",
  "5797": " floating",
  "5798": " bye",
  "5799": " Smith",
  "5800": "kingdom",
  "5801": " kingdom",
  "5802": " olives",
  "5803": "victo",
  "5804": " kicking",
  "5805": " Wiggly",
  "5806": " victo",
  "5807": " noo",
  "5808": " Baby",
  "5809": " Wall",
  "5810": " toes",
  "5811": " By",
  "5812": " muscles",
  "5813": " Rosie",
  "5814": " jewels",
  "5815": " rip",
  "5816": " melte",
  "5817": " melted",
  "5818": "rey",
  "5819": " begg",
  "5820": " slapp",
  "5821": " Che",
  "5822": "rist",
  "5823": " understanding",
  "5824": " collection",
  "5825": " measured",
  "5826": " tore",
  "5827": " trappe",
  "5828": " trapped",
  "5829": " lined",
  "5830": "'ve",
  "5831": " acte",
  "5832": " acted",
  "5833": " lean",
  "5834": "eived",
  "5835": " encouraged",
  "5836": "fortunately",
  "5837": "nfortunately",
  "5838": " bree",
  "5839": " Sandy",
  "5840": "ceived",
  "5841": "received",
  "5842": " received",
  "5843": " Bef",
  "5844": " Befo",
  "5845": " Before",
  "5846": " waffles",
  "5847": " Jess",
  "5848": " Wally",
  "5849": " wes",
  "5850": " west",
  "5851": " patterns",
  "5852": " Kate",
  "5853": " appreciate",
  "5854": " breeze",
  "5855": " mouths",
  "5856": " Chick",
  "5857": " Pep",
  "5858": "resul",
  "5859": "result",
  "5860": " peache",
  "5861": " peaches",
  "5862": " result",
  "5863": " poss",
  "5864": " printed",
  "5865": " soldiers",
  "5866": " somed",
  "5867": " someda",
  "5868": " someday",
  "5869": " potatoe",
  "5870": " potatoes",
  "5871": " pupil",
  "5872": " spit",
  "5873": " Millie",
  "5874": " appear",
  "5875": " shed",
  "5876": " relaxe",
  "5877": " Tuna",
  "5878": " Ze",
  "5879": " none",
  "5880": " presents",
  "5881": " voices",
  "5882": " imm",
  "5883": " Uncle",
  "5884": " imme",
  "5885": " flat",
  "5886": " appro",
  "5887": " relaxed",
  "5888": " paints",
  "5889": " victory",
  "5890": " cause",
  "5891": "hurried",
  "5892": " hurried",
  "5893": " Qu",
  "5894": " twink",
  "5895": " twinkl",
  "5896": " tale",
  "5897": " costumes",
  "5898": " mentione",
  "5899": " mentioned",
  "5900": " begge",
  "5901": " begged",
  "5902": " teasing",
  "5903": " whistling",
  "5904": "zie",
  "5905": " permis",
  "5906": " permiss",
  "5907": " permissio",
  "5908": " permission",
  "5909": " disagreed",
  "5910": " paddle",
  "5911": " pearl",
  "5912": " Fol",
  "5913": " six",
  "5914": " studie",
  "5915": " Thes",
  "5916": " These",
  "5917": " sorte",
  "5918": " fishing",
  "5919": " sidew",
  "5920": " sidewa",
  "5921": " highes",
  "5922": " highest",
  "5923": " Mag",
  "5924": " watches",
  "5925": " sorted",
  "5926": "icing",
  "5927": " tonight",
  "5928": " opi",
  "5929": " opin",
  "5930": " opinio",
  "5931": " lets",
  "5932": " prais",
  "5933": " suppos",
  "5934": " suppose",
  "5935": " immed",
  "5936": " immedia",
  "5937": " immediat",
  "5938": " immediate",
  "5939": " fetch",
  "5940": " shadows",
  "5941": " immediatel",
  "5942": " immediately",
  "5943": " Tho",
  "5944": " warmt",
  "5945": " warmth",
  "5946": " remained",
  "5947": " praise",
  "5948": " Its",
  "5949": " beat",
  "5950": " Pepp",
  "5951": " Foll",
  "5952": " contes",
  "5953": " contest",
  "5954": " ago",
  "5955": " usual",
  "5956": " spaces",
  "5957": " cartoons",
  "5958": " Tot",
  "5959": " sidewal",
  "5960": " sidewalk",
  "5961": " colours",
  "5962": " stamps",
  "5963": " Toto",
  "5964": " Follo",
  "5965": " Follow",
  "5966": " east",
  "5967": " heade",
  "5968": " headed",
  "5969": "nchy",
  "5970": " Zoe",
  "5971": " ladyb",
  "5972": " fed",
  "5973": " supposed",
  "5974": " roots",
  "5975": " mixing",
  "5976": " Lea",
  "5977": " decorations",
  "5978": " known",
  "5979": " melting",
  "5980": " reste",
  "5981": " rested",
  "5982": " Suzy",
  "5983": " lily",
  "5984": " setting",
  "5985": " Slo",
  "5986": " laid",
  "5987": " Bot",
  "5988": " cones",
  "5989": " succeede",
  "5990": " succeeded",
  "5991": " approa",
  "5992": " approac",
  "5993": " shock",
  "5994": " Slow",
  "5995": " stol",
  "5996": " stole",
  "5997": " studied",
  "5998": " strangers",
  "5999": " Rocky",
  "6000": " twigs",
  "6001": " theirs",
  "6002": " Mat",
  "6003": " girls",
  "6004": " Ve",
  "6005": " screams",
  "6006": "!\",",
  "6007": " ordered",
  "6008": " moments",
  "6009": " fields",
  "6010": " alright",
  "6011": " Moo",
  "6012": " stealing",
  "6013": " Both",
  "6014": " miste",
  "6015": " mister",
  "6016": " Sky",
  "6017": " Sto",
  "6018": "!'",
  "6019": " Clara",
  "6020": "nves",
  "6021": "nvest",
  "6022": " area",
  "6023": "invest",
  "6024": " invest",
  "6025": " scratched",
  "6026": " ripped",
  "6027": " investigat",
  "6028": " tucked",
  "6029": " resting",
  "6030": " die",
  "6031": " Chicky",
  "6032": " bridges",
  "6033": " officer",
  "6034": " tex",
  "6035": " text",
  "6036": "Bird",
  "6037": " broo",
  "6038": " textu",
  "6039": " settled",
  "6040": " ach",
  "6041": " matched",
  "6042": " achie",
  "6043": " investigate",
  "6044": " waits",
  "6045": " possi",
  "6046": " possib",
  "6047": " Peppe",
  "6048": " trembling",
  "6049": " nails",
  "6050": " Jame",
  "6051": " decis",
  "6052": " Someo",
  "6053": " Someone",
  "6054": " muffins",
  "6055": " decisio",
  "6056": " sore",
  "6057": " James",
  "6058": " escaped",
  "6059": " piles",
  "6060": " broom",
  "6061": " ladybug",
  "6062": " Wis",
  "6063": " silence",
  "6064": " Pepper",
  "6065": " sisters",
  "6066": " dads",
  "6067": " emergency",
  "6068": " answers",
  "6069": " keys",
  "6070": "ivit",
  "6071": " chewing",
  "6072": " Lat",
  "6073": " slappe",
  "6074": " slapped",
  "6075": " importance",
  "6076": " wizard",
  "6077": " safet",
  "6078": " safety",
  "6079": " Late",
  "6080": "izing",
  "6081": " hisse",
  "6082": "biga",
  "6083": " wobble",
  "6084": " Robb",
  "6085": " motio",
  "6086": " touching",
  "6087": " Later",
  "6088": " soared",
  "6089": " sings",
  "6090": "bigail",
  "6091": " shopp",
  "6092": " loos",
  "6093": " amaze",
  "6094": " loose",
  "6095": " Dino",
  "6096": " amazem",
  "6097": " amazeme",
  "6098": " amazement",
  "6099": " chall",
  "6100": " challe",
  "6101": " challeng",
  "6102": " keeps",
  "6103": " reveale",
  "6104": " revealed",
  "6105": " hes",
  "6106": " hesit",
  "6107": " hesita",
  "6108": " ite",
  "6109": " item",
  "6110": " soaked",
  "6111": " rott",
  "6112": " tugg",
  "6113": " Abb",
  "6114": " foods",
  "6115": " Hap",
  "6116": " Yes",
  "6117": " dinosaurs",
  "6118": " rides",
  "6119": " Happ",
  "6120": " talent",
  "6121": " spacesh",
  "6122": " spaceship",
  "6123": " Zigzag",
  "6124": " fart",
  "6125": " leade",
  "6126": " glowe",
  "6127": " trips",
  "6128": " glowed",
  "6129": " beame",
  "6130": " beamed",
  "6131": " curle",
  "6132": " curled",
  "6133": " hated",
  "6134": " quack",
  "6135": " woode",
  "6136": " Rac",
  "6137": " untie",
  "6138": " farthe",
  "6139": " shopping",
  "6140": " eats",
  "6141": " Bug",
  "6142": "Eventually",
  "6143": " crashe",
  "6144": " praised",
  "6145": " Rol",
  "6146": " wooden",
  "6147": " dogg",
  "6148": " pec",
  "6149": " mittens",
  "6150": " studying",
  "6151": " guy",
  "6152": " crawling",
  "6153": " Fra",
  "6154": " gust",
  "6155": " Something",
  "6156": "nstai",
  "6157": "nstairs",
  "6158": " ruler",
  "6159": " flavo",
  "6160": " downstairs",
  "6161": " shooting",
  "6162": " napping",
  "6163": " tastes",
  "6164": " cuddled",
  "6165": "ricked",
  "6166": "hrill",
  "6167": " dot",
  "6168": " fut",
  "6169": " futu",
  "6170": " monsters",
  "6171": " actio",
  "6172": " collecting",
  "6173": " future",
  "6174": "unchy",
  "6175": " measur",
  "6176": " measuring",
  "6177": " Happy",
  "6178": " Steve",
  "6179": " familie",
  "6180": " families",
  "6181": " First",
  "6182": " Out",
  "6183": " challenge",
  "6184": " thrill",
  "6185": " approache",
  "6186": " slim",
  "6187": "Cra",
  "6188": "Yummy",
  "6189": " approached",
  "6190": " Rabbit",
  "6191": "runchy",
  "6192": " possibl",
  "6193": " crunchy",
  "6194": " stripe",
  "6195": " pett",
  "6196": " bleeding",
  "6197": " remembers",
  "6198": " nicer",
  "6199": " sneaky",
  "6200": " disturbe",
  "6201": " disturbed",
  "6202": " leader",
  "6203": " Hope",
  "6204": " Bec",
  "6205": " boom",
  "6206": " peel",
  "6207": " Star",
  "6208": " sting",
  "6209": " fireme",
  "6210": " firemen",
  "6211": " neighborho",
  "6212": " neighborhoo",
  "6213": " neighborhood",
  "6214": " grey",
  "6215": " prop",
  "6216": " noon",
  "6217": " possible",
  "6218": " apologized",
  "6219": " zooke",
  "6220": " zookee",
  "6221": " zookeep",
  "6222": " zookeepe",
  "6223": " texture",
  "6224": " Did",
  "6225": " tickets",
  "6226": " naps",
  "6227": " pride",
  "6228": " yout",
  "6229": " youth",
  "6230": " Roll",
  "6231": " swims",
  "6232": " slowe",
  "6233": " pok",
  "6234": "gnized",
  "6235": "ognized",
  "6236": "cognized",
  "6237": "recognized",
  "6238": " recognized",
  "6239": " poking",
  "6240": "ubbing",
  "6241": " tricked",
  "6242": " gained",
  "6243": " wonders",
  "6244": " crashed",
  "6245": " wanting",
  "6246": " obey",
  "6247": " seesa",
  "6248": " seesaw",
  "6249": " ef",
  "6250": " eff",
  "6251": " scoope",
  "6252": " draws",
  "6253": " scooped",
  "6254": "rubbing",
  "6255": ".'",
  "6256": " zooming",
  "6257": " opinion",
  "6258": " yelling",
  "6259": " glit",
  "6260": " prepared",
  "6261": " glitt",
  "6262": " glitte",
  "6263": " Slowl",
  "6264": " Slowly",
  "6265": " doggy",
  "6266": " poems",
  "6267": " Beep",
  "6268": " acting",
  "6269": " keepe",
  "6270": " happies",
  "6271": " happiest",
  "6272": " chef",
  "6273": " sneaked",
  "6274": " respons",
  "6275": " responsi",
  "6276": " Alw",
  "6277": " Alwa",
  "6278": " responsib",
  "6279": " Alway",
  "6280": " Always",
  "6281": " Lizzy",
  "6282": " owned",
  "6283": " anyt",
  "6284": " anytim",
  "6285": " anytime",
  "6286": " lap",
  "6287": " struck",
  "6288": " pedals",
  "6289": " conta",
  "6290": " secrets",
  "6291": " Bli",
  "6292": " Blin",
  "6293": " Blink",
  "6294": " decorated",
  "6295": " agreem",
  "6296": " agreeme",
  "6297": " agreement",
  "6298": " Squ",
  "6299": " fros",
  "6300": " frost",
  "6301": " talles",
  "6302": " tallest",
  "6303": " Stop",
  "6304": " decides",
  "6305": " Once",
  "6306": " behaved",
  "6307": " tugge",
  "6308": " tugged",
  "6309": " sides",
  "6310": "zzing",
  "6311": " polishe",
  "6312": " woof",
  "6313": " catche",
  "6314": " goodnight",
  "6315": " keeper",
  "6316": " Wel",
  "6317": " chirpe",
  "6318": " chirped",
  "6319": " sparkling",
  "6320": " motion",
  "6321": "rives",
  "6322": " Woo",
  "6323": " repeate",
  "6324": " repeated",
  "6325": " claps",
  "6326": " snowballs",
  "6327": "indy",
  "6328": " Ray",
  "6329": " kindl",
  "6330": " ourse",
  "6331": " oursel",
  "6332": " Prince",
  "6333": " ourselves",
  "6334": " giraffes",
  "6335": " Magg",
  "6336": " balancing",
  "6337": " Friend",
  "6338": " kindly",
  "6339": " alie",
  "6340": "Hipp",
  "6341": " spending",
  "6342": " writes",
  "6343": " Fran",
  "6344": " hissed",
  "6345": " frozen",
  "6346": "First",
  "6347": " frosting",
  "6348": " Gree",
  "6349": "nizing",
  "6350": "uzzing",
  "6351": " beside",
  "6352": " effo",
  "6353": " effort",
  "6354": " buzzing",
  "6355": " struggled",
  "6356": " admir",
  "6357": " admiring",
  "6358": " sweeties",
  "6359": " Velvet",
  "6360": "rising",
  "6361": " slimy",
  "6362": " Bal",
  "6363": " tos",
  "6364": " toss",
  "6365": " bloome",
  "6366": " bloomed",
  "6367": "Tho",
  "6368": "Susie",
  "6369": " polished",
  "6370": " ban",
  "6371": " comfy",
  "6372": " staying",
  "6373": " rubbing",
  "6374": " mate",
  "6375": " pockets",
  "6376": " rocking",
  "6377": " thrille",
  "6378": " thrilled",
  "6379": " Kee",
  "6380": " Aunt",
  "6381": " Hoo",
  "6382": " earlie",
  "6383": " dragg",
  "6384": " Maggie",
  "6385": " eight",
  "6386": " machines",
  "6387": " earlier",
  "6388": " seems",
  "6389": " yest",
  "6390": " yeste",
  "6391": " yesterd",
  "6392": " yesterda",
  "6393": " yesterday",
  "6394": " chick",
  "6395": "urred",
  "6396": " rust",
  "6397": " Keep",
  "6398": " folding",
  "6399": " opening",
  "6400": " cracked",
  "6401": " hugging",
  "6402": "rrounded",
  "6403": "urrounded",
  "6404": " loade",
  "6405": " radishe",
  "6406": " radishes",
  "6407": " Stit",
  "6408": " Stitc",
  "6409": " loving",
  "6410": " surrounded",
  "6411": " Rache",
  "6412": " Rachel",
  "6413": " demande",
  "6414": " demanded",
  "6415": " spraying",
  "6416": " supplie",
  "6417": "Mill",
  "6418": " paintings",
  "6419": " removed",
  "6420": " pebbles",
  "6421": " hardl",
  "6422": " hardly",
  "6423": " zookeeper",
  "6424": " catches",
  "6425": "anizing",
  "6426": "ganizing",
  "6427": "rganizing",
  "6428": " powers",
  "6429": " stripes",
  "6430": " Pippa",
  "6431": " loaded",
  "6432": " pots",
  "6433": " splashes",
  "6434": " Bree",
  "6435": " pette",
  "6436": " petted",
  "6437": " matching",
  "6438": " belly",
  "6439": "Thanks",
  "6440": " Cra",
  "6441": " comforte",
  "6442": " whate",
  "6443": " whateve",
  "6444": " whatever",
  "6445": " comforted",
  "6446": " rocked",
  "6447": " partie",
  "6448": " decision",
  "6449": " eagl",
  "6450": " eagle",
  "6451": " ty",
  "6452": " prope",
  "6453": " Birdie",
  "6454": " Joy",
  "6455": " sled",
  "6456": " Stitch",
  "6457": " struggling",
  "6458": " wed",
  "6459": " Friends",
  "6460": " expecte",
  "6461": " expected",
  "6462": " steep",
  "6463": "Nina",
  "6464": " protecte",
  "6465": " protected",
  "6466": " neighbors",
  "6467": " chases",
  "6468": " smiley",
  "6469": " grante",
  "6470": " granted",
  "6471": " purred",
  "6472": " roads",
  "6473": " diving",
  "6474": " sadne",
  "6475": " sadnes",
  "6476": " sadness",
  "6477": " organizing",
  "6478": "Oo",
  "6479": " heroe",
  "6480": " heroes",
  "6481": " dipped",
  "6482": " lied",
  "6483": " lowe",
  "6484": " pastels",
  "6485": " beard",
  "6486": " safer",
  "6487": " Milly",
  "6488": "gued",
  "6489": "rgued",
  "6490": " argued",
  "6491": " Frank",
  "6492": " Spl",
  "6493": " dam",
  "6494": " singe",
  "6495": " goals",
  "6496": " wedd",
  "6497": " wedding",
  "6498": " discovery",
  "6499": " Wate",
  "6500": " Water",
  "6501": " backw",
  "6502": " backwa",
  "6503": " backward",
  "6504": " Abigail",
  "6505": "nstruct",
  "6506": " peered",
  "6507": " chop",
  "6508": " Bouncy",
  "6509": " continue",
  "6510": " dragons",
  "6511": " buckets",
  "6512": " buildings",
  "6513": " parties",
  "6514": " flutt",
  "6515": " flutte",
  "6516": " darl",
  "6517": " darling",
  "6518": " planets",
  "6519": " Robby",
  "6520": " Gog",
  "6521": " polishing",
  "6522": " fasc",
  "6523": " released",
  "6524": " deser",
  "6525": " crabs",
  "6526": "Hippy",
  "6527": " Gogo",
  "6528": " tails",
  "6529": " Watc",
  "6530": " Jos",
  "6531": " Ga",
  "6532": " sausages",
  "6533": " bottles",
  "6534": " contro",
  "6535": " control",
  "6536": " wiggled",
  "6537": " teased",
  "6538": " badg",
  "6539": " badge",
  "6540": " dragge",
  "6541": " dragged",
  "6542": " roaring",
  "6543": " clearing",
  "6544": " gathering",
  "6545": " movies",
  "6546": " shirts",
  "6547": " tune",
  "6548": " actu",
  "6549": " actua",
  "6550": " actual",
  "6551": " airpl",
  "6552": " airpla",
  "6553": " airplane",
  "6554": " bead",
  "6555": " Spla",
  "6556": " mane",
  "6557": " Splas",
  "6558": " teaches",
  "6559": " spiders",
  "6560": "fres",
  "6561": " Reme",
  "6562": " Remem",
  "6563": " Rememb",
  "6564": " limes",
  "6565": " overj",
  "6566": " overjo",
  "6567": " overjoy",
  "6568": " Remembe",
  "6569": " Remember",
  "6570": "refres",
  "6571": " refres",
  "6572": " Dare",
  "6573": " overjoye",
  "6574": " overjoyed",
  "6575": " Ball",
  "6576": " actuall",
  "6577": " actually",
  "6578": " colour",
  "6579": " soaring",
  "6580": " smalles",
  "6581": " smallest",
  "6582": " drives",
  "6583": " sparkles",
  "6584": " situ",
  "6585": " situa",
  "6586": " situat",
  "6587": " Pup",
  "6588": " Olly",
  "6589": " grandmo",
  "6590": "ntis",
  "6591": " grandmot",
  "6592": " grandmothe",
  "6593": " situatio",
  "6594": " grandmother",
  "6595": " pretends",
  "6596": "ntist",
  "6597": " Pea",
  "6598": " cuts",
  "6599": " fascinat",
  "6600": " Watch",
  "6601": " peppers",
  "6602": " quarreling",
  "6603": " Hol",
  "6604": " bank",
  "6605": " dusty",
  "6606": " Fis",
  "6607": " villagers",
  "6608": " wondering",
  "6609": " stretching",
  "6610": " weeks",
  "6611": " responsibl",
  "6612": " whereve",
  "6613": " wherever",
  "6614": " younge",
  "6615": "Tiny",
  "6616": " smarte",
  "6617": " X",
  "6618": " Katie",
  "6619": " pretties",
  "6620": " Being",
  "6621": " Everyd",
  "6622": " Everyda",
  "6623": " Everyday",
  "6624": " prettiest",
  "6625": " caut",
  "6626": " stomp",
  "6627": " company",
  "6628": " penguins",
  "6629": "Luna",
  "6630": "nnah",
  "6631": " stare",
  "6632": " bedt",
  "6633": " bedtim",
  "6634": " bedtime",
  "6635": " Wisd",
  "6636": " Wisdo",
  "6637": " Wisdom",
  "6638": " completed",
  "6639": " gott",
  "6640": " mention",
  "6641": " knights",
  "6642": " Splash",
  "6643": "instruct",
  "6644": " instruct",
  "6645": " flags",
  "6646": " Beca",
  "6647": " Because",
  "6648": " playro",
  "6649": " playroo",
  "6650": " playroom",
  "6651": " twinkle",
  "6652": " actions",
  "6653": " Zero",
  "6654": " learns",
  "6655": " gotte",
  "6656": " gotten",
  "6657": " Ava",
  "6658": " patience",
  "6659": " sobb",
  "6660": " twe",
  "6661": " responsible",
  "6662": " faul",
  "6663": " fault",
  "6664": " reply",
  "6665": "hird",
  "6666": " wrist",
  "6667": " applaude",
  "6668": " packing",
  "6669": "fight",
  "6670": "fide",
  "6671": "nfide",
  "6672": " applauded",
  "6673": " mountains",
  "6674": " scrubbe",
  "6675": " scrubbed",
  "6676": " crep",
  "6677": " crept",
  "6678": " Eart",
  "6679": " Earth",
  "6680": " satis",
  "6681": " satisf",
  "6682": " awake",
  "6683": " Sna",
  "6684": " third",
  "6685": " pencils",
  "6686": " destination",
  "6687": " acco",
  "6688": " sticking",
  "6689": " confide",
  "6690": " baker",
  "6691": " visiting",
  "6692": " uses",
  "6693": " reminder",
  "6694": " peas",
  "6695": " hitt",
  "6696": " Put",
  "6697": "rums",
  "6698": " jok",
  "6699": " joking",
  "6700": " hitting",
  "6701": "refight",
  "6702": "irefight",
  "6703": " screaming",
  "6704": " bene",
  "6705": " wound",
  "6706": "irefighte",
  "6707": " clue",
  "6708": " crowd",
  "6709": " swoo",
  "6710": " helmets",
  "6711": " copy",
  "6712": " Green",
  "6713": " Lou",
  "6714": " towels",
  "6715": " Leave",
  "6716": "Sill",
  "6717": "Silly",
  "6718": " wasted",
  "6719": " chat",
  "6720": "Ot",
  "6721": " Behind",
  "6722": " masks",
  "6723": " outd",
  "6724": " items",
  "6725": " outdo",
  "6726": " instructio",
  "6727": " lollipops",
  "6728": " Ad",
  "6729": " Hippy",
  "6730": " died",
  "6731": " firefighte",
  "6732": " dama",
  "6733": " damag",
  "6734": " hesitat",
  "6735": " glitter",
  "6736": "Yea",
  "6737": " closes",
  "6738": " weren",
  "6739": " scales",
  "6740": " accom",
  "6741": " achieve",
  "6742": " logs",
  "6743": " practicing",
  "6744": " whos",
  "6745": " accomp",
  "6746": " whose",
  "6747": " candie",
  "6748": " instructions",
  "6749": " proj",
  "6750": " proje",
  "6751": " projec",
  "6752": " project",
  "6753": " pumpkins",
  "6754": " agrees",
  "6755": " candies",
  "6756": " drums",
  "6757": " swoop",
  "6758": " snakes",
  "6759": " chirping",
  "6760": " damage",
  "6761": " outdoo",
  "6762": " shelves",
  "6763": " protecting",
  "6764": " exac",
  "6765": " exact",
  "6766": " parked",
  "6767": " stude",
  "6768": " student",
  "6769": " patientl",
  "6770": " patiently",
  "6771": " shoulders",
  "6772": " videos",
  "6773": " Ske",
  "6774": " Skel",
  "6775": " blows",
  "6776": " promises",
  "6777": " Bop",
  "6778": " amo",
  "6779": "Cuddle",
  "6780": "usan",
  "6781": " examined",
  "6782": " roses",
  "6783": "ucta",
  "6784": " accompl",
  "6785": " accomplis",
  "6786": " tasks",
  "6787": " Sc",
  "6788": " Hoot",
  "6789": "uctant",
  "6790": " Too",
  "6791": " beads",
  "6792": " bowls",
  "6793": " For",
  "6794": " listens",
  "6795": " Love",
  "6796": " Brownie",
  "6797": "Cuddles",
  "6798": " dolphins",
  "6799": " guest",
  "6800": " remot",
  "6801": " remote",
  "6802": " requeste",
  "6803": " requested",
  "6804": " tapp",
  "6805": " policem",
  "6806": " improved",
  "6807": " brand",
  "6808": " activit",
  "6809": " Bye",
  "6810": " alien",
  "6811": "Luck",
  "6812": " photos",
  "6813": " cheering",
  "6814": " robb",
  "6815": "ulia",
  "6816": " Chew",
  "6817": "  ",
  "6818": " robbe",
  "6819": " Squirrel",
  "6820": " cans",
  "6821": " contai",
  "6822": "Time",
  "6823": "ummie",
  "6824": " Cuddles",
  "6825": " ster",
  "6826": " replaced",
  "6827": " Bigg",
  "6828": " stern",
  "6829": " adul",
  "6830": " adult",
  "6831": "ritt",
  "6832": " missio",
  "6833": " neit",
  "6834": " neithe",
  "6835": " neither",
  "6836": " aim",
  "6837": " paj",
  "6838": " paja",
  "6839": " pajam",
  "6840": " pajama",
  "6841": "lict",
  "6842": "flict",
  "6843": "nflict",
  "6844": " puppe",
  "6845": " misses",
  "6846": " passing",
  "6847": " puppet",
  "6848": " squis",
  "6849": " curtains",
  "6850": " softe",
  "6851": " conflict",
  "6852": " Thom",
  "6853": " rainbows",
  "6854": " Princes",
  "6855": " Princess",
  "6856": " rolls",
  "6857": "uctantl",
  "6858": "uctantly",
  "6859": " patted",
  "6860": " pajamas",
  "6861": " outdoors",
  "6862": " complaining",
  "6863": " awes",
  "6864": " stead",
  "6865": " filling",
  "6866": " benea",
  "6867": " beneat",
  "6868": " beneath",
  "6869": " warme",
  "6870": " Mouse",
  "6871": "iries",
  "6872": "\u00e2\u0080\u0094",
  "6873": " Sorry",
  "6874": "Nothing",
  "6875": " balanced",
  "6876": " cheat",
  "6877": " Dot",
  "6878": " quacked",
  "6879": " rescued",
  "6880": " Abby",
  "6881": " contain",
  "6882": " aweso",
  "6883": " awesom",
  "6884": " awesome",
  "6885": " Howe",
  "6886": " Howeve",
  "6887": " However",
  "6888": " mission",
  "6889": " Ot",
  "6890": " cautious",
  "6891": " guys",
  "6892": "ritte",
  "6893": " observed",
  "6894": " Thoma",
  "6895": " Thomas",
  "6896": " cracke",
  "6897": " pastries",
  "6898": " desert",
  "6899": " 1",
  "6900": " doctors",
  "6901": " exactl",
  "6902": " exactly",
  "6903": "Oop",
  "6904": "Oops",
  "6905": " becoming",
  "6906": " policema",
  "6907": " policeman",
  "6908": " ventu",
  "6909": " rockets",
  "6910": " fairies",
  "6911": " pout",
  "6912": "Cho",
  "6913": " blooming",
  "6914": " tang",
  "6915": " tract",
  "6916": " tracto",
  "6917": " farther",
  "6918": " Sad",
  "6919": " included",
  "6920": " remembering",
  "6921": " curly",
  "6922": " comm",
  "6923": "Fine",
  "6924": " teamw",
  "6925": " teamwo",
  "6926": " teamwor",
  "6927": " teamwork",
  "6928": "huck",
  "6929": " sights",
  "6930": " fascinate",
  "6931": " fascinated",
  "6932": " slam",
  "6933": " wobbled",
  "6934": "aul",
  "6935": " Matt",
  "6936": " Jilly",
  "6937": "Henry",
  "6938": " caused",
  "6939": " tractor",
  "6940": " prayer",
  "6941": " Dee",
  "6942": " spong",
  "6943": " ast",
  "6944": "risk",
  "6945": " traded",
  "6946": " sponge",
  "6947": " supplies",
  "6948": " pointy",
  "6949": " thor",
  "6950": " throa",
  "6951": " throat",
  "6952": " inviting",
  "6953": " situation",
  "6954": "ummies",
  "6955": " Blo",
  "6956": " everyd",
  "6957": " everyda",
  "6958": " everyday",
  "6959": " neighbourho",
  "6960": " neighbourhoo",
  "6961": " neighbourhood",
  "6962": " ornaments",
  "6963": " Ally",
  "6964": " valued",
  "6965": " vow",
  "6966": " adding",
  "6967": " Las",
  "6968": " gems",
  "6969": " reluctantly",
  "6970": "zzed",
  "6971": " dots",
  "6972": " stays",
  "6973": " prettier",
  "6974": " Kid",
  "6975": " Whist",
  "6976": " Whistl",
  "6977": "ido",
  "6978": " snowme",
  "6979": " snowmen",
  "6980": " steady",
  "6981": " minerals",
  "6982": " Kay",
  "6983": " Beth",
  "6984": " fara",
  "6985": " faraw",
  "6986": " farawa",
  "6987": " faraway",
  "6988": " glasse",
  "6989": " glasses",
  "6990": " Welc",
  "6991": " Welco",
  "6992": " dolla",
  "6993": " Foxy",
  "6994": " Get",
  "6995": "fit",
  "6996": " Two",
  "6997": " Welcom",
  "6998": " Welcome",
  "6999": " foc",
  "7000": " swoope",
  "7001": " swooped",
  "7002": "Cop",
  "7003": "ibbit",
  "7004": " usuall",
  "7005": " usually",
  "7006": " Jamie",
  "7007": " sneezing",
  "7008": " solut",
  "7009": " solutio",
  "7010": " loading",
  "7011": " Want",
  "7012": " Quick",
  "7013": " insects",
  "7014": "uzie",
  "7015": " Sant",
  "7016": " cent",
  "7017": " pans",
  "7018": " Bar",
  "7019": " heavie",
  "7020": " startl",
  "7021": " Santa",
  "7022": " sobbe",
  "7023": " sobbed",
  "7024": " growling",
  "7025": " squeak",
  "7026": " noses",
  "7027": " homew",
  "7028": " Dizzy",
  "7029": " confident",
  "7030": " yourselves",
  "7031": " homewo",
  "7032": " homewor",
  "7033": " homework",
  "7034": " Josh",
  "7035": " Stay",
  "7036": " superheroe",
  "7037": " superheroes",
  "7038": " mast",
  "7039": " Tree",
  "7040": " smarter",
  "7041": " windy",
  "7042": " Kids",
  "7043": "Tina",
  "7044": "ilit",
  "7045": "rarian",
  "7046": "brarian",
  "7047": "ibrarian",
  "7048": " underne",
  "7049": " undernea",
  "7050": "..\"",
  "7051": " underneat",
  "7052": " underneath",
  "7053": " kicks",
  "7054": " Sw",
  "7055": " knowl",
  "7056": " knowle",
  "7057": " knowled",
  "7058": " knowledg",
  "7059": " librarian",
  "7060": " snat",
  "7061": " snatc",
  "7062": " itchy",
  "7063": " jackets",
  "7064": " knowledge",
  "7065": " tangl",
  "7066": " Paw",
  "7067": "...\"",
  "7068": " def",
  "7069": " Skell",
  "7070": " Skelly",
  "7071": " tangle",
  "7072": " desp",
  "7073": " startle",
  "7074": "Yeah",
  "7075": " Whistle",
  "7076": " princesse",
  "7077": " princesses",
  "7078": "Nick",
  "7079": "Thos",
  "7080": "Those",
  "7081": "Paul",
  "7082": " squares",
  "7083": "Op",
  "7084": " giggling",
  "7085": " warnings",
  "7086": " younger",
  "7087": " swal",
  "7088": " swall",
  "7089": " swallo",
  "7090": " swallow",
  "7091": " clowns",
  "7092": " Mix",
  "7093": " ropes",
  "7094": " risk",
  "7095": " lighte",
  "7096": " calme",
  "7097": " biting",
  "7098": "nca",
  "7099": " Unfortunately",
  "7100": " deal",
  "7101": " seag",
  "7102": " seagul",
  "7103": " seagull",
  "7104": "True",
  "7105": " paddled",
  "7106": " Jone",
  "7107": " wears",
  "7108": " delivered",
  "7109": " pigg",
  "7110": "Cara",
  "7111": "uzzed",
  "7112": " buzzed",
  "7113": " complained",
  "7114": " bumpy",
  "7115": " stem",
  "7116": " Qua",
  "7117": " piggy",
  "7118": "Cathy",
  "7119": "Mrs",
  "7120": " dived",
  "7121": " Jones",
  "7122": " startled",
  "7123": " tangled",
  "7124": " leaning",
  "7125": " toaste",
  "7126": " ripe",
  "7127": " Ant",
  "7128": "unding",
  "7129": " leap",
  "7130": "Nea",
  "7131": " vowe",
  "7132": " vowed",
  "7133": " Sho",
  "7134": " age",
  "7135": " squeal",
  "7136": " Fe",
  "7137": " napkins",
  "7138": " tickled",
  "7139": " covers",
  "7140": "Cindy",
  "7141": "inco",
  "7142": "Near",
  "7143": " yells",
  "7144": " satisfie",
  "7145": " satisfied",
  "7146": " knocks",
  "7147": " refreshe",
  "7148": " refreshed",
  "7149": " Pla",
  "7150": " range",
  "7151": " rotte",
  "7152": " arrows",
  "7153": " cous",
  "7154": " cousi",
  "7155": " designe",
  "7156": " Dod",
  "7157": " hops",
  "7158": " wipes",
  "7159": " speaking",
  "7160": " guessing",
  "7161": " lettuce",
  "7162": " Quac",
  "7163": "Unfortunately",
  "7164": " Susan",
  "7165": " Dodo",
  "7166": " choices",
  "7167": " hides",
  "7168": " seeke",
  "7169": " Rove",
  "7170": " Rover",
  "7171": " slower",
  "7172": "Ce",
  "7173": " seeker",
  "7174": " fab",
  "7175": " introduced",
  "7176": " Ada",
  "7177": " singer",
  "7178": " Jump",
  "7179": "ncake",
  "7180": " Quack",
  "7181": "ritten",
  "7182": "nsp",
  "7183": " competitio",
  "7184": "Nice",
  "7185": " joked",
  "7186": " explorers",
  "7187": " toaster",
  "7188": "Ope",
  "7189": " wandering",
  "7190": " praying",
  "7191": " discovering",
  "7192": " written",
  "7193": " Dara",
  "7194": " provided",
  "7195": " Jef",
  "7196": " Jeff",
  "7197": " Mel",
  "7198": " mushrooms",
  "7199": " hesitate",
  "7200": " Paws",
  "7201": " paying",
  "7202": " Cop",
  "7203": " hider",
  "7204": " pancake",
  "7205": " images",
  "7206": "huckl",
  "7207": " barel",
  "7208": " barely",
  "7209": " magnets",
  "7210": " behaving",
  "7211": " marked",
  "7212": "?\",",
  "7213": " restored",
  "7214": " leading",
  "7215": "?'",
  "7216": "nching",
  "7217": " greet",
  "7218": "urst",
  "7219": " Zig",
  "7220": "uence",
  "7221": " chuckl",
  "7222": " bravery",
  "7223": " conse",
  "7224": " fad",
  "7225": " gears",
  "7226": " competition",
  "7227": " outfit",
  "7228": " sce",
  "7229": " Mira",
  "7230": " Ash",
  "7231": " Bets",
  "7232": " Toot",
  "7233": " properl",
  "7234": " properly",
  "7235": " wishing",
  "7236": " ventured",
  "7237": " dances",
  "7238": " salty",
  "7239": "quence",
  "7240": " pens",
  "7241": " Betsy",
  "7242": " Zigg",
  "7243": " Ziggy",
  "7244": " ranger",
  "7245": " deserve",
  "7246": " howe",
  "7247": " howeve",
  "7248": " however",
  "7249": "zzie",
  "7250": " matters",
  "7251": " chuckle",
  "7252": " burst",
  "7253": " rainy",
  "7254": " chefs",
  "7255": " blocking",
  "7256": " consequence",
  "7257": " Bugg",
  "7258": " sense",
  "7259": " vines",
  "7260": " maste",
  "7261": " Sof",
  "7262": " fabr",
  "7263": " fabric",
  "7264": " basem",
  "7265": " baseme",
  "7266": " basement",
  "7267": " enti",
  "7268": " least",
  "7269": " Buggy",
  "7270": " scratches",
  "7271": " heavier",
  "7272": " Clai",
  "7273": " Claire",
  "7274": " mints",
  "7275": " avocados",
  "7276": " twirling",
  "7277": " Lase",
  "7278": "izzie",
  "7279": " sewe",
  "7280": " Robo",
  "7281": " losing",
  "7282": " scurried",
  "7283": "haust",
  "7284": " Jenna",
  "7285": "rial",
  "7286": " rainco",
  "7287": " raincoa",
  "7288": " raincoat",
  "7289": " swords",
  "7290": " bows",
  "7291": " Laser",
  "7292": " jobs",
  "7293": " silent",
  "7294": "Lill",
  "7295": " click",
  "7296": " flames",
  "7297": " necklaces",
  "7298": " Grumpy",
  "7299": " relief",
  "7300": " rotting",
  "7301": " sewed",
  "7302": " snatche",
  "7303": " tricky",
  "7304": " lighter",
  "7305": " Skip",
  "7306": "rehe",
  "7307": " Clo",
  "7308": " exhaust",
  "7309": " consequences",
  "7310": " solution",
  "7311": " Not",
  "7312": " Lena",
  "7313": " wow",
  "7314": " Rud",
  "7315": " Mart",
  "7316": " Jan",
  "7317": " races",
  "7318": "free",
  "7319": " bumps",
  "7320": " partic",
  "7321": " wraps",
  "7322": "noy",
  "7323": "nnoy",
  "7324": " backed",
  "7325": " decorating",
  "7326": " needles",
  "7327": " dentist",
  "7328": " cautiousl",
  "7329": " cautiously",
  "7330": " annoy",
  "7331": " poste",
  "7332": " accomplish",
  "7333": " Bloo",
  "7334": " Snap",
  "7335": " cot",
  "7336": " daisie",
  "7337": " daisies",
  "7338": " entire",
  "7339": " triangles",
  "7340": " Thos",
  "7341": " Those",
  "7342": " hesitated",
  "7343": " dod",
  "7344": " growls",
  "7345": " crackers",
  "7346": " secu",
  "7347": "rehea",
  "7348": " entra",
  "7349": " entrance",
  "7350": " dodg",
  "7351": " stompe",
  "7352": " stomped",
  "7353": " grabbing",
  "7354": " bodie",
  "7355": " bodies",
  "7356": " cott",
  "7357": " buying",
  "7358": " Fido",
  "7359": " Rolly",
  "7360": " Adam",
  "7361": " budge",
  "7362": " swans",
  "7363": " Goodb",
  "7364": " ties",
  "7365": " material",
  "7366": " grows",
  "7367": " sweets",
  "7368": "Sho",
  "7369": " Goodby",
  "7370": " Goodbye",
  "7371": " cheeks",
  "7372": " owners",
  "7373": " Cathy",
  "7374": " suffering",
  "7375": " Jessie",
  "7376": " ache",
  "7377": " Twi",
  "7378": " gen",
  "7379": " groups",
  "7380": " Meg",
  "7381": " forehea",
  "7382": " forehead",
  "7383": "Harry",
  "7384": " bakery",
  "7385": " intereste",
  "7386": " interested",
  "7387": " Twin",
  "7388": "hrist",
  "7389": "Christ",
  "7390": " freed",
  "7391": "Lilly",
  "7392": " Nothing",
  "7393": " chuckled",
  "7394": " Mad",
  "7395": " slamm",
  "7396": " swep",
  "7397": " swept",
  "7398": " exhauste",
  "7399": " exhausted",
  "7400": " tappe",
  "7401": " tapped",
  "7402": " twinkling",
  "7403": " nect",
  "7404": " necta",
  "7405": " nectar",
  "7406": "uddly",
  "7407": " feas",
  "7408": " feast",
  "7409": " celebratio",
  "7410": " Twink",
  "7411": " flavor",
  "7412": "indro",
  "7413": "indrop",
  "7414": " worries",
  "7415": " fuzzy",
  "7416": " Trust",
  "7417": " repaired",
  "7418": " Copp",
  "7419": " Coppe",
  "7420": " Copper",
  "7421": " activitie",
  "7422": " activities",
  "7423": " Hannah",
  "7424": " pecked",
  "7425": " form",
  "7426": " plent",
  "7427": " Try",
  "7428": " List",
  "7429": " Liste",
  "7430": " meals",
  "7431": " raindrop",
  "7432": " completel",
  "7433": " completely",
  "7434": " maile",
  "7435": " mailed",
  "7436": " nests",
  "7437": " cuddly",
  "7438": " waiter",
  "7439": " colored",
  "7440": " Cara",
  "7441": " peeking",
  "7442": " plenty",
  "7443": " slamme",
  "7444": " slammed",
  "7445": " peck",
  "7446": " players",
  "7447": "rup",
  "7448": " Kayl",
  "7449": "icha",
  "7450": " Birthday",
  "7451": " mont",
  "7452": " month",
  "7453": "\u00e2\u0080\u0098",
  "7454": " tighte",
  "7455": " Ele",
  "7456": " Christ",
  "7457": " handful",
  "7458": " impos",
  "7459": " genie",
  "7460": " wad",
  "7461": " Fish",
  "7462": " stool",
  "7463": " feeding",
  "7464": " talks",
  "7465": " Suzie",
  "7466": " Twinkl",
  "7467": " passports",
  "7468": " imposs",
  "7469": " impossi",
  "7470": " impossib",
  "7471": " impossibl",
  "7472": " impossible",
  "7473": " determination",
  "7474": " printing",
  "7475": " designed",
  "7476": " buse",
  "7477": " buses",
  "7478": " bars",
  "7479": " counts",
  "7480": " fade",
  "7481": " opp",
  "7482": " stolen",
  "7483": " oppo",
  "7484": " spreading",
  "7485": " steer",
  "7486": " wiping",
  "7487": "Cal",
  "7488": " lamb",
  "7489": "Hurry",
  "7490": " scrap",
  "7491": " cowb",
  "7492": " den",
  "7493": " Twinkle",
  "7494": " separated",
  "7495": "urprising",
  "7496": " feve",
  "7497": " sewing",
  "7498": " chatt",
  "7499": " cowbo",
  "7500": " cowboy",
  "7501": " Bark",
  "7502": " camping",
  "7503": " fever",
  "7504": " ec",
  "7505": " lower",
  "7506": " sway",
  "7507": " changing",
  "7508": " behav",
  "7509": " behavio",
  "7510": " flutter",
  "7511": " Bloom",
  "7512": " seaw",
  "7513": "iqu",
  "7514": " celebration",
  "7515": " liqu",
  "7516": " liquid",
  "7517": " dollhouse",
  "7518": " squeale",
  "7519": " squealed",
  "7520": " snatched",
  "7521": " cash",
  "7522": "giving",
  "7523": " twice",
  "7524": " plo",
  "7525": " Fros",
  "7526": " hopeful",
  "7527": " Frost",
  "7528": " celebrating",
  "7529": " Peanut",
  "7530": "Pipp",
  "7531": " Jaco",
  "7532": " Jacob",
  "7533": " gle",
  "7534": " shops",
  "7535": " sweete",
  "7536": " Julia",
  "7537": " Jessic",
  "7538": " Jessica",
  "7539": " Gina",
  "7540": " dropping",
  "7541": " intr",
  "7542": " colde",
  "7543": " plug",
  "7544": "Jump",
  "7545": " touches",
  "7546": " pancakes",
  "7547": " spat",
  "7548": "ingo",
  "7549": " Frosty",
  "7550": " tram",
  "7551": " tramp",
  "7552": " Nina",
  "7553": " paths",
  "7554": " Hold",
  "7555": " rotten",
  "7556": " Ce",
  "7557": " calmed",
  "7558": " seawe",
  "7559": " seawee",
  "7560": " seaweed",
  "7561": " stroked",
  "7562": " twisting",
  "7563": " untied",
  "7564": " playhouse",
  "7565": " Rea",
  "7566": " puppie",
  "7567": " puppies",
  "7568": " students",
  "7569": "Millie",
  "7570": " screws",
  "7571": " astro",
  "7572": " someb",
  "7573": " somebo",
  "7574": " somebod",
  "7575": " somebody",
  "7576": " wrapping",
  "7577": " sale",
  "7578": " Listen",
  "7579": " wakes",
  "7580": "naut",
  "7581": " typ",
  "7582": " Woof",
  "7583": "usb",
  "7584": " astronaut",
  "7585": " bracelets",
  "7586": " thrown",
  "7587": " loops",
  "7588": " Othe",
  "7589": " penn",
  "7590": "Luckily",
  "7591": " planning",
  "7592": " regrett",
  "7593": " aime",
  "7594": " aimed",
  "7595": " pennie",
  "7596": " pennies",
  "7597": " beginning",
  "7598": " dancers",
  "7599": " sparks",
  "7600": " Jay",
  "7601": " Bra",
  "7602": " leve",
  "7603": "uide",
  "7604": "usba",
  "7605": "usband",
  "7606": " Christm",
  "7607": " Christma",
  "7608": " Christmas",
  "7609": " poster",
  "7610": " objects",
  "7611": " Beak",
  "7612": " trampo",
  "7613": " trampol",
  "7614": " trampoline",
  "7615": "husband",
  "7616": " cust",
  "7617": " husband",
  "7618": " Patc",
  "7619": " Que",
  "7620": " guide",
  "7621": " clues",
  "7622": " snowf",
  "7623": " leads",
  "7624": " Ed",
  "7625": " custo",
  "7626": " messe",
  "7627": " blocked",
  "7628": " rising",
  "7629": " Lia",
  "7630": " strol",
  "7631": " stroll",
  "7632": " Nick",
  "7633": " Yest",
  "7634": " Yeste",
  "7635": " Yesterd",
  "7636": " Yesterda",
  "7637": " Yesterday",
  "7638": " cousin",
  "7639": " Witho",
  "7640": " Without",
  "7641": "reke",
  "7642": "rekee",
  "7643": "rekeep",
  "7644": "rekeepe",
  "7645": "igued",
  "7646": "rekeeper",
  "7647": " custom",
  "7648": " overc",
  "7649": "Choo",
  "7650": " Rollie",
  "7651": " poute",
  "7652": " pouted",
  "7653": " storekeeper",
  "7654": " borrowe",
  "7655": " zebras",
  "7656": " hedgeho",
  "7657": " hedgehog",
  "7658": " borrowed",
  "7659": " rustl",
  "7660": " \u00e2\u0080\u0098",
  "7661": " snowfl",
  "7662": " snowfla",
  "7663": " snowflake",
  "7664": " countrys",
  "7665": " countryside",
  "7666": " aff",
  "7667": " vehicles",
  "7668": " Doc",
  "7669": " Kayla",
  "7670": " Quee",
  "7671": " mesm",
  "7672": " mesme",
  "7673": " Up",
  "7674": " frowning",
  "7675": " custome",
  "7676": "Open",
  "7677": " avoid",
  "7678": " bey",
  "7679": " beyo",
  "7680": " beyond",
  "7681": " presses",
  "7682": "ripping",
  "7683": " Biggie",
  "7684": " Tara",
  "7685": " Queen",
  "7686": " swimsu",
  "7687": " swimsuit",
  "7688": " whispers",
  "7689": " flapping",
  "7690": " warmer",
  "7691": " Wool",
  "7692": " regrette",
  "7693": " regretted",
  "7694": " laying",
  "7695": " yelp",
  "7696": " everyb",
  "7697": " everybo",
  "7698": " everybod",
  "7699": " everybody",
  "7700": " glued",
  "7701": " swap",
  "7702": " conce",
  "7703": " hearing",
  "7704": " colder",
  "7705": " swirl",
  "7706": " Other",
  "7707": " Ac",
  "7708": " Elep",
  "7709": " Elepha",
  "7710": " Elephant",
  "7711": " shaped",
  "7712": " Gl",
  "7713": " streets",
  "7714": "tivit",
  "7715": "ativit",
  "7716": "ativity",
  "7717": "reativity",
  "7718": " rusty",
  "7719": " farthes",
  "7720": " farthest",
  "7721": " creativity",
  "7722": " Bone",
  "7723": "Neve",
  "7724": " stronges",
  "7725": " strongest",
  "7726": " Sparky",
  "7727": " fits",
  "7728": " bells",
  "7729": " type",
  "7730": "rrounding",
  "7731": "urrounding",
  "7732": " dollars",
  "7733": " tosse",
  "7734": " Larry",
  "7735": " cashie",
  "7736": " lending",
  "7737": " Chirp",
  "7738": " cashier",
  "7739": " including",
  "7740": "Milly",
  "7741": " surrounding",
  "7742": " Els",
  "7743": " hallw",
  "7744": " hallwa",
  "7745": " hallway",
  "7746": " tempt",
  "7747": "Coo",
  "7748": " stopping",
  "7749": " trembled",
  "7750": " Snowm",
  "7751": " Missy",
  "7752": " indee",
  "7753": " indeed",
  "7754": " wobbly",
  "7755": " dodge",
  "7756": " scrape",
  "7757": " guests",
  "7758": " shal",
  "7759": " shall",
  "7760": "insp",
  "7761": " singl",
  "7762": " single",
  "7763": " pose",
  "7764": " spells",
  "7765": " accomplishm",
  "7766": " accomplishme",
  "7767": " accomplishment",
  "7768": " supporte",
  "7769": " Madd",
  "7770": " belts",
  "7771": " ends",
  "7772": " surprising",
  "7773": " insp",
  "7774": " Take",
  "7775": " seasons",
  "7776": " Snowma",
  "7777": " Snowman",
  "7778": " plans",
  "7779": "ichae",
  "7780": "ichael",
  "7781": " supported",
  "7782": "urrow",
  "7783": " suffered",
  "7784": " artis",
  "7785": " artist",
  "7786": " overco",
  "7787": " slowed",
  "7788": "rgiving",
  "7789": " flavors",
  "7790": " gros",
  "7791": " gross",
  "7792": " gardene",
  "7793": " labels",
  "7794": " raindrops",
  "7795": " delivery",
  "7796": " stands",
  "7797": " forgiving",
  "7798": " racc",
  "7799": " racco",
  "7800": " raccoo",
  "7801": "Nob",
  "7802": "Nobo",
  "7803": "Nobod",
  "7804": "Nobody",
  "7805": " turtles",
  "7806": " vanill",
  "7807": " vanilla",
  "7808": " Moon",
  "7809": " Pig",
  "7810": " Pam",
  "7811": " tying",
  "7812": " hott",
  "7813": " hotte",
  "7814": "ility",
  "7815": " gee",
  "7816": " gees",
  "7817": " geese",
  "7818": " overcom",
  "7819": " afterw",
  "7820": " drawn",
  "7821": " twee",
  "7822": " willing",
  "7823": " afterwa",
  "7824": " afterward",
  "7825": " wep",
  "7826": " wept",
  "7827": "itud",
  "7828": "itude",
  "7829": " Bones",
  "7830": " imagi",
  "7831": " Sophia",
  "7832": " stitche",
  "7833": " chara",
  "7834": " charac",
  "7835": " charact",
  "7836": " characte",
  "7837": " imagining",
  "7838": " pops",
  "7839": " queens",
  "7840": " smas",
  "7841": " grip",
  "7842": " seconds",
  "7843": "Yog",
  "7844": " Fuzzy",
  "7845": " prepar",
  "7846": " preparing",
  "7847": " joyful",
  "7848": " widene",
  "7849": " widened",
  "7850": " robber",
  "7851": " coop",
  "7852": " talente",
  "7853": " talented",
  "7854": " Beaky",
  "7855": "nstant",
  "7856": " Izzy",
  "7857": " Robe",
  "7858": " Roo",
  "7859": " aside",
  "7860": " softer",
  "7861": "Cow",
  "7862": " watering",
  "7863": " knots",
  "7864": " sending",
  "7865": " tipped",
  "7866": "zipping",
  "7867": "izo",
  "7868": "rizo",
  "7869": " horizo",
  "7870": " Lizzie",
  "7871": " treehouse",
  "7872": " Tit",
  "7873": " echo",
  "7874": " notes",
  "7875": " achieved",
  "7876": " spie",
  "7877": " Robert",
  "7878": " Sim",
  "7879": " Stel",
  "7880": " Stell",
  "7881": " Stella",
  "7882": " horizon",
  "7883": " delivering",
  "7884": " pupils",
  "7885": " Cal",
  "7886": " hotter",
  "7887": " pleasu",
  "7888": " June",
  "7889": " Stretc",
  "7890": " burrow",
  "7891": " scie",
  "7892": "Never",
  "7893": " curiousl",
  "7894": " curiously",
  "7895": " tweet",
  "7896": " symbols",
  "7897": " Cindy",
  "7898": " Rudy",
  "7899": " passeng",
  "7900": " passenge",
  "7901": " tummies",
  "7902": " pigeons",
  "7903": " tis",
  "7904": " tiss",
  "7905": " tissue",
  "7906": " bandages",
  "7907": " Ame",
  "7908": " Doct",
  "7909": " Docto",
  "7910": " coup",
  "7911": " visito",
  "7912": " Tia",
  "7913": " tossed",
  "7914": " backwards",
  "7915": " raccoon",
  "7916": " roars",
  "7917": " flashe",
  "7918": " merm",
  "7919": " merma",
  "7920": " mermaid",
  "7921": " Crab",
  "7922": " enem",
  "7923": " rathe",
  "7924": " rather",
  "7925": " pleasure",
  "7926": " Play",
  "7927": " groceries",
  "7928": " zipping",
  "7929": " Sparkl",
  "7930": " icing",
  "7931": " Doctor",
  "7932": " among",
  "7933": " blown",
  "7934": " afterwards",
  "7935": " screwd",
  "7936": " screwdr",
  "7937": " screwdri",
  "7938": " screwdrive",
  "7939": "!\u00e2\u0080\u009d.",
  "7940": " Titi",
  "7941": " glee",
  "7942": " sped",
  "7943": "urd",
  "7944": " overcome",
  "7945": " Read",
  "7946": "Cro",
  "7947": " slices",
  "7948": " Ry",
  "7949": " Turt",
  "7950": " merry",
  "7951": " hesitant",
  "7952": " Abbie",
  "7953": " disturbing",
  "7954": " heading",
  "7955": " firefighters",
  "7956": " reversed",
  "7957": " swallowe",
  "7958": " swallowed",
  "7959": " Tea",
  "7960": " cente",
  "7961": " flipped",
  "7962": " scored",
  "7963": " chill",
  "7964": " squeezing",
  "7965": "Ox",
  "7966": " chopp",
  "7967": " paintb",
  "7968": " intrigued",
  "7969": "uraging",
  "7970": " Truck",
  "7971": " Shel",
  "7972": " maker",
  "7973": " coupl",
  "7974": " couple",
  "7975": " Barky",
  "7976": " Hal",
  "7977": " cupc",
  "7978": " cupca",
  "7979": " cupcake",
  "7980": "freeze",
  "7981": " haw",
  "7982": " hawk",
  "7983": " encouraging",
  "7984": "print",
  "7985": " chosen",
  "7986": " aud",
  "7987": " Turtl",
  "7988": " designs",
  "7989": " Ex",
  "7990": " screwdriver",
  "7991": " slipping",
  "7992": " Emmy",
  "7993": " squishy",
  "7994": " center",
  "7995": " gardener",
  "7996": " paintbr",
  "7997": " paintbrus",
  "7998": " respond",
  "7999": " Rya",
  "8000": " jars",
  "8001": " frowns",
  "8002": " Sadl",
  "8003": " Sadly",
  "8004": " fluttered",
  "8005": " Ryan",
  "8006": " Turtle",
  "8007": " firefighter",
  "8008": "Ribbit",
  "8009": " Sparkle",
  "8010": " ignor",
  "8011": " ignoring",
  "8012": " giggles",
  "8013": " Laura",
  "8014": " lac",
  "8015": " tighter",
  "8016": " diso",
  "8017": "ulat",
  "8018": " familia",
  "8019": " shown",
  "8020": " thorns",
  "8021": " familiar",
  "8022": "nives",
  "8023": " Jas",
  "8024": " Zee",
  "8025": " crossing",
  "8026": " drawers",
  "8027": " express",
  "8028": "ipa",
  "8029": "child",
  "8030": " Toy",
  "8031": " audie",
  "8032": " audience",
  "8033": " cloudy",
  "8034": " coloured",
  "8035": " teste",
  "8036": " Gill",
  "8037": " ais",
  "8038": " aisl",
  "8039": " aisle",
  "8040": " Mint",
  "8041": " Ron",
  "8042": " gracefull",
  "8043": " pedale",
  "8044": " pedaled",
  "8045": "Oxy",
  "8046": " mixt",
  "8047": " mixtu",
  "8048": " gracefully",
  "8049": " bits",
  "8050": " yielde",
  "8051": " yielded",
  "8052": " nappe",
  "8053": " pon",
  "8054": " ponie",
  "8055": " ponies",
  "8056": " crowns",
  "8057": " disob",
  "8058": " disobe",
  "8059": " mixture",
  "8060": " plead",
  "8061": " todd",
  "8062": " toddl",
  "8063": " Sle",
  "8064": " Slee",
  "8065": " Sleep",
  "8066": " hangers",
  "8067": " nervousl",
  "8068": " nervously",
  "8069": " pays",
  "8070": "Yet",
  "8071": " stroke",
  "8072": " napped",
  "8073": " respecte",
  "8074": " respected",
  "8075": " minde",
  "8076": " toddle",
  "8077": " minded",
  "8078": " 2",
  "8079": " Alo",
  "8080": " Er",
  "8081": " memb",
  "8082": " membe",
  "8083": "inching",
  "8084": " switche",
  "8085": " tested",
  "8086": " Stretch",
  "8087": " University",
  "8088": " Near",
  "8089": " Patch",
  "8090": " beeh",
  "8091": " glim",
  "8092": " Gran",
  "8093": " neighbours",
  "8094": " shady",
  "8095": " Fight",
  "8096": " darlings",
  "8097": " enthusiasm",
  "8098": " magicia",
  "8099": " wisel",
  "8100": " wisely",
  "8101": " Ap",
  "8102": " stitches",
  "8103": " defe",
  "8104": " Shell",
  "8105": " thoughts",
  "8106": " weeke",
  "8107": " weekend",
  "8108": " Tweetie",
  "8109": " reminds",
  "8110": " Tes",
  "8111": " croa",
  "8112": " stal",
  "8113": " tempe",
  "8114": " weed",
  "8115": " fleas",
  "8116": " spits",
  "8117": " surroundings",
  "8118": "ntha",
  "8119": "antha",
  "8120": " teams",
  "8121": " arra",
  "8122": " fills",
  "8123": " lessons",
  "8124": " Cro",
  "8125": " Along",
  "8126": " melons",
  "8127": " paintbrush",
  "8128": "Oa",
  "8129": "nicked",
  "8130": " elb",
  "8131": " elbo",
  "8132": " elbow",
  "8133": " grandchild",
  "8134": " hoops",
  "8135": " explod",
  "8136": " sports",
  "8137": " Fighting",
  "8138": " lies",
  "8139": " panicked",
  "8140": " amount",
  "8141": " cleaner",
  "8142": "Pippi",
  "8143": " longes",
  "8144": " longest",
  "8145": " scooters",
  "8146": " Hone",
  "8147": " lent",
  "8148": " beloved",
  "8149": " swimme",
  "8150": " beehi",
  "8151": " beehive",
  "8152": " permitt",
  "8153": "Pippin",
  "8154": " lace",
  "8155": " Ic",
  "8156": " grandparent",
  "8157": " oysters",
  "8158": " gobb",
  "8159": " gobbl",
  "8160": " sadd",
  "8161": "tulat",
  "8162": "ratulat",
  "8163": "ngratulat",
  "8164": " Wise",
  "8165": " magazines",
  "8166": " chatte",
  "8167": " explode",
  "8168": " elf",
  "8169": " discusse",
  "8170": " repeating",
  "8171": " Maya",
  "8172": " discussed",
  "8173": " Pupp",
  "8174": " Thanks",
  "8175": " sweetes",
  "8176": " sweetest",
  "8177": " wadd",
  "8178": " waddl",
  "8179": " Granny",
  "8180": " nightmares",
  "8181": "Yoga",
  "8182": " hatc",
  "8183": " Holl",
  "8184": " Willy",
  "8185": " kill",
  "8186": " mesmer",
  "8187": " spoonful",
  "8188": " understands",
  "8189": " Zoey",
  "8190": " bathing",
  "8191": " nood",
  "8192": " noodl",
  "8193": " noodle",
  "8194": " sweep",
  "8195": " Yet",
  "8196": " gobble",
  "8197": " Holly",
  "8198": " bully",
  "8199": " sprang",
  "8200": " Ches",
  "8201": " snort",
  "8202": " potio",
  "8203": " ray",
  "8204": "while",
  "8205": " Bally",
  "8206": " Joa",
  "8207": " bulbs",
  "8208": "Abb",
  "8209": " grassy",
  "8210": " foots",
  "8211": " footst",
  "8212": " spies",
  "8213": " testing",
  "8214": " wiggly",
  "8215": " Len",
  "8216": " magician",
  "8217": " footste",
  "8218": " footstep",
  "8219": " sheets",
  "8220": " solving",
  "8221": " Mop",
  "8222": " arrang",
  "8223": " footsteps",
  "8224": " Well",
  "8225": " speeding",
  "8226": " deed",
  "8227": " duckl",
  "8228": " duckling",
  "8229": " exce",
  "8230": " focuse",
  "8231": " focused",
  "8232": " camel",
  "8233": " mesmerized",
  "8234": " Show",
  "8235": " mile",
  "8236": " licking",
  "8237": " Poo",
  "8238": "vince",
  "8239": "nvince",
  "8240": " apologis",
  "8241": " spice",
  "8242": " Puppy",
  "8243": " joining",
  "8244": "Sno",
  "8245": " Martha",
  "8246": " convince",
  "8247": " greete",
  "8248": " greeted",
  "8249": " pola",
  "8250": " polar",
  "8251": " Nobody",
  "8252": " changes",
  "8253": " materials",
  "8254": "rinse",
  "8255": " rinse",
  "8256": " bicycles",
  "8257": " stored",
  "8258": "undred",
  "8259": " Jon",
  "8260": " peacefull",
  "8261": " peacefully",
  "8262": " Ana",
  "8263": " gonna",
  "8264": " politel",
  "8265": " politely",
  "8266": "knives",
  "8267": " Micro",
  "8268": " scarec",
  "8269": " scarecro",
  "8270": " scarecrow",
  "8271": " spills",
  "8272": " knives",
  "8273": "Snow",
  "8274": " Mixy",
  "8275": " burying",
  "8276": " ram",
  "8277": " aren",
  "8278": " caf",
  "8279": " aeroplanes",
  "8280": " backs",
  "8281": " miles",
  "8282": " Mais",
  "8283": " scattering",
  "8284": " seals",
  "8285": " Chewy",
  "8286": " Tess",
  "8287": " dump",
  "8288": " worrying",
  "8289": "nuzzle",
  "8290": " nuzzle",
  "8291": " Soft",
  "8292": " Lenny",
  "8293": " Simo",
  "8294": " puzzled",
  "8295": " stacked",
  "8296": " secure",
  "8297": " Cel",
  "8298": "umming",
  "8299": " Shad",
  "8300": " loses",
  "8301": "nstantl",
  "8302": "nstantly",
  "8303": " Nice",
  "8304": " apologise",
  "8305": " blas",
  "8306": " blast",
  "8307": " baskets",
  "8308": " tasting",
  "8309": " gazing",
  "8310": " cert",
  "8311": " tempera",
  "8312": " temperat",
  "8313": " temperatu",
  "8314": " believing",
  "8315": " blam",
  "8316": " dripping",
  "8317": " pinching",
  "8318": " rats",
  "8319": " soaking",
  "8320": " 10",
  "8321": " purpo",
  "8322": " purpos",
  "8323": " purpose",
  "8324": " sandy",
  "8325": " Of",
  "8326": " Isn",
  "8327": " Simon",
  "8328": "nwhile",
  "8329": "anwhile",
  "8330": " Oa",
  "8331": " Oxy",
  "8332": " bange",
  "8333": " banged",
  "8334": " crashing",
  "8335": " humans",
  "8336": "Col",
  "8337": "Mira",
  "8338": "wra",
  "8339": "wrap",
  "8340": "hundred",
  "8341": " hundred",
  "8342": " ges",
  "8343": " gest",
  "8344": " gestu",
  "8345": " Chess",
  "8346": " swimmer",
  "8347": " quarrele",
  "8348": " snowflakes",
  "8349": " relaxing",
  "8350": " beepe",
  "8351": " beeped",
  "8352": " resiste",
  "8353": " resisted",
  "8354": " Des",
  "8355": " encouragem",
  "8356": " encourageme",
  "8357": " encouragement",
  "8358": " quarreled",
  "8359": " Pee",
  "8360": " Wend",
  "8361": " Wendy",
  "8362": " ramp",
  "8363": " joins",
  "8364": "athing",
  "8365": " backpacks",
  "8366": " quiete",
  "8367": " delaye",
  "8368": " delayed",
  "8369": " dressing",
  "8370": " Dea",
  "8371": " covering",
  "8372": " toddler",
  "8373": " Luckily",
  "8374": " bam",
  "8375": " postm",
  "8376": " benche",
  "8377": " benches",
  "8378": " selle",
  "8379": " flight",
  "8380": " particular",
  "8381": " scraped",
  "8382": " Edd",
  "8383": " lipst",
  "8384": " lipstick",
  "8385": " Cow",
  "8386": " bamb",
  "8387": " bambo",
  "8388": " bamboo",
  "8389": " months",
  "8390": " permitte",
  "8391": " permitted",
  "8392": " twinkled",
  "8393": " languages",
  "8394": " potion",
  "8395": "nsc",
  "8396": " orders",
  "8397": " freedo",
  "8398": " freedom",
  "8399": " poppie",
  "8400": " poppies",
  "8401": " risks",
  "8402": " waddle",
  "8403": " Joj",
  "8404": " noodles",
  "8405": " postma",
  "8406": " faded",
  "8407": "rupt",
  "8408": " wounds",
  "8409": " master",
  "8410": " Jojo",
  "8411": " Smo",
  "8412": " birdhouse",
  "8413": " echoe",
  "8414": " Say",
  "8415": " annoye",
  "8416": " annoyed",
  "8417": " cells",
  "8418": " adults",
  "8419": " ease",
  "8420": " ouc",
  "8421": " slit",
  "8422": "usine",
  "8423": " alt",
  "8424": " cheers",
  "8425": " nights",
  "8426": " temperature",
  "8427": "Birdy",
  "8428": "nwrap",
  "8429": "unwrap",
  "8430": " unwrap",
  "8431": "via",
  "8432": " floats",
  "8433": " handso",
  "8434": " handsom",
  "8435": " handsome",
  "8436": " opinions",
  "8437": "Buzzy",
  "8438": " Spide",
  "8439": "Instead",
  "8440": " flown",
  "8441": " blame",
  "8442": " sneezes",
  "8443": " nodding",
  "8444": " smelling",
  "8445": " Rick",
  "8446": " address",
  "8447": " germ",
  "8448": " 5",
  "8449": " Mab",
  "8450": " peele",
  "8451": " withi",
  "8452": " within",
  "8453": " Ali",
  "8454": " bothering",
  "8455": " damaged",
  "8456": " height",
  "8457": " pleade",
  "8458": " pleaded",
  "8459": " slithe",
  "8460": " Marie",
  "8461": " Mabe",
  "8462": " Mabel",
  "8463": " mars",
  "8464": " scientist",
  "8465": " Twis",
  "8466": " Twist",
  "8467": " handing",
  "8468": " marsh",
  "8469": " seller",
  "8470": "usines",
  "8471": "usiness",
  "8472": " Sea",
  "8473": " Vi",
  "8474": " Make",
  "8475": " business",
  "8476": " files",
  "8477": " wasting",
  "8478": " results",
  "8479": " arrange",
  "8480": " destroying",
  "8481": " explains",
  "8482": " Razor",
  "8483": " characters",
  "8484": "himm",
  "8485": " certa",
  "8486": " certai",
  "8487": " certain",
  "8488": " minds",
  "8489": " suggestio",
  "8490": " sweaty",
  "8491": "ehind",
  "8492": "Behind",
  "8493": " focus",
  "8494": " scene",
  "8495": "Nut",
  "8496": " Robbie",
  "8497": " talents",
  "8498": " braves",
  "8499": " bravest",
  "8500": " engines",
  "8501": "Nurse",
  "8502": "Try",
  "8503": " Janie",
  "8504": " builde",
  "8505": " sternl",
  "8506": " sternly",
  "8507": " mosquitoe",
  "8508": " mosquitoes",
  "8509": " postman",
  "8510": " smashe",
  "8511": "nuck",
  "8512": " misc",
  "8513": " shimm",
  "8514": " craf",
  "8515": " craft",
  "8516": " scares",
  "8517": " apologised",
  "8518": " coope",
  "8519": " misch",
  "8520": " mischie",
  "8521": " Amel",
  "8522": " Elle",
  "8523": " bitten",
  "8524": " snuck",
  "8525": "ipat",
  "8526": " decisions",
  "8527": " reminding",
  "8528": " switched",
  "8529": " behavior",
  "8530": " glimm",
  "8531": " glimme",
  "8532": " singers",
  "8533": "reathing",
  "8534": "uffing",
  "8535": " Judge",
  "8536": " despe",
  "8537": " despera",
  "8538": " desperat",
  "8539": " Poor",
  "8540": " shorte",
  "8541": " peeled",
  "8542": " squeaked",
  "8543": " Everyb",
  "8544": " Everybo",
  "8545": " Everybod",
  "8546": " Everybody",
  "8547": " scam",
  "8548": " Coo",
  "8549": " Unt",
  "8550": " Until",
  "8551": " displaye",
  "8552": " displayed",
  "8553": " rustling",
  "8554": " smashed",
  "8555": "Curious",
  "8556": " matey",
  "8557": " neatl",
  "8558": " neatly",
  "8559": "Till",
  "8560": " planting",
  "8561": " marshm",
  "8562": " marshma",
  "8563": " marshmal",
  "8564": " marshmall",
  "8565": " marshmallo",
  "8566": " marshmallow",
  "8567": " bellie",
  "8568": " bellies",
  "8569": " cracks",
  "8570": " grandparents",
  "8571": " yelpe",
  "8572": " yelped",
  "8573": " coopera",
  "8574": " cooperat",
  "8575": " faile",
  "8576": " failed",
  "8577": "nounce",
  "8578": " Todd",
  "8579": " scamp",
  "8580": " scampe",
  "8581": " doorw",
  "8582": " doorwa",
  "8583": " doorway",
  "8584": " kinde",
  "8585": " Yoga",
  "8586": "rity",
  "8587": " nas",
  "8588": " nast",
  "8589": "prints",
  "8590": " zooms",
  "8591": " breathing",
  "8592": " nasty",
  "8593": " combe",
  "8594": " combed",
  "8595": " gap",
  "8596": " waterf",
  "8597": " despit",
  "8598": " despite",
  "8599": " pandas",
  "8600": "Nel",
  "8601": " Louis",
  "8602": " waterfa",
  "8603": " waterfal",
  "8604": " waterfall",
  "8605": " Kel",
  "8606": " Loop",
  "8607": " Jenn",
  "8608": " robbers",
  "8609": " shimme",
  "8610": " tuck",
  "8611": " wider",
  "8612": "Nell",
  "8613": "Tilly",
  "8614": " antic",
  "8615": " echoed",
  "8616": " sweaters",
  "8617": " thorn",
  "8618": "Abigail",
  "8619": "ippers",
  "8620": "ubba",
  "8621": " edges",
  "8622": " Shado",
  "8623": " Shadow",
  "8624": "Aunt",
  "8625": " Blinky",
  "8626": " disobey",
  "8627": " spy",
  "8628": " Michael",
  "8629": " Wait",
  "8630": " cafe",
  "8631": " commo",
  "8632": " compassio",
  "8633": " compassion",
  "8634": " taped",
  "8635": " action",
  "8636": " flaps",
  "8637": " scolds",
  "8638": " Mindy",
  "8639": " crawls",
  "8640": " magn",
  "8641": " magni",
  "8642": " magnif",
  "8643": " Gary",
  "8644": " gobbled",
  "8645": "nnounce",
  "8646": " announce",
  "8647": " Eddie",
  "8648": " Fishy",
  "8649": " desperate",
  "8650": " stet",
  "8651": " stetho",
  "8652": " stethos",
  "8653": " stethosc",
  "8654": " stethosco",
  "8655": " stethoscop",
  "8656": " stethoscope",
  "8657": " newspapers",
  "8658": " proba",
  "8659": " probab",
  "8660": " probabl",
  "8661": " probably",
  "8662": "Cam",
  "8663": " Rai",
  "8664": " Rain",
  "8665": " encount",
  "8666": " encounte",
  "8667": "uffl",
  "8668": " grands",
  "8669": " grandso",
  "8670": " plucked",
  "8671": " quieter",
  "8672": " belonging",
  "8673": " Share",
  "8674": " occ",
  "8675": " Pas",
  "8676": " doorb",
  "8677": " doorbe",
  "8678": " doorbel",
  "8679": " doorbell",
  "8680": " plot",
  "8681": " cares",
  "8682": " cotta",
  "8683": " cottag",
  "8684": " cottage",
  "8685": " snaps",
  "8686": " squaw",
  "8687": " Time",
  "8688": " grandson",
  "8689": " rescu",
  "8690": " rescuing",
  "8691": " rows",
  "8692": " simply",
  "8693": " whistles",
  "8694": " Nut",
  "8695": " astronauts",
  "8696": " shorter",
  "8697": " accidents",
  "8698": " mood",
  "8699": " swol",
  "8700": " swoll",
  "8701": " swolle",
  "8702": " swollen",
  "8703": " alle",
  "8704": " Mous",
  "8705": " Mousy",
  "8706": " bothered",
  "8707": "Hannah",
  "8708": " causing",
  "8709": " trusting",
  "8710": "Thom",
  "8711": "ularl",
  "8712": "ularly",
  "8713": " Bump",
  "8714": " Butt",
  "8715": " Exc",
  "8716": " dresser",
  "8717": " leapt",
  "8718": " cheate",
  "8719": " pills",
  "8720": " Jel",
  "8721": " Zac",
  "8722": " througho",
  "8723": " throughout",
  "8724": " Dina",
  "8725": " prayers",
  "8726": " Sat",
  "8727": " Hall",
  "8728": " Kare",
  "8729": "Thoma",
  "8730": "Thomas",
  "8731": "unsc",
  "8732": " Soc",
  "8733": " locks",
  "8734": " beave",
  "8735": " goats",
  "8736": " sadde",
  "8737": " Karen",
  "8738": " Bang",
  "8739": " dears",
  "8740": " waddled",
  "8741": " lowered",
  "8742": " Ral",
  "8743": "hump",
  "8744": " Jackie",
  "8745": " Jell",
  "8746": " stepping",
  "8747": " teachers",
  "8748": " Eat",
  "8749": " Toys",
  "8750": " playd",
  "8751": " Vro",
  "8752": " Vroo",
  "8753": " Vroom",
  "8754": "Yaw",
  "8755": " Bad",
  "8756": " explorer",
  "8757": " Eva",
  "8758": " Ralp",
  "8759": " Ready",
  "8760": " anticipat",
  "8761": " Desp",
  "8762": " Ralph",
  "8763": " efforts",
  "8764": " floors",
  "8765": " knocking",
  "8766": " whim",
  "8767": "Os",
  "8768": "iratio",
  "8769": " Ama",
  "8770": " aware",
  "8771": " trot",
  "8772": " footprints",
  "8773": " Fiona",
  "8774": " nearl",
  "8775": " nearly",
  "8776": " prick",
  "8777": " Ria",
  "8778": "iration",
  "8779": " moa",
  "8780": " appreciatio",
  "8781": " appreciation",
  "8782": " whimp",
  "8783": " whimpe",
  "8784": " checks",
  "8785": " necks",
  "8786": " Call",
  "8787": " collap",
  "8788": " collaps",
  "8789": " excep",
  "8790": " except",
  "8791": " lapt",
  "8792": " lapto",
  "8793": " laptop",
  "8794": " Jacky",
  "8795": " Hors",
  "8796": " fluttering",
  "8797": " umbrellas",
  "8798": "nstal",
  "8799": " Davey",
  "8800": " Soa",
  "8801": " sandcastles",
  "8802": " stampe",
  "8803": " stamped",
  "8804": " Mot",
  "8805": " statues",
  "8806": "Cand",
  "8807": "Hm",
  "8808": " Amelia",
  "8809": " Honey",
  "8810": " kille",
  "8811": " Tak",
  "8812": " adds",
  "8813": " chocolates",
  "8814": " dodged",
  "8815": " germs",
  "8816": " hunters",
  "8817": " passengers",
  "8818": " unta",
  "8819": " aprons",
  "8820": " Sock",
  "8821": " sets",
  "8822": " Gerry",
  "8823": " novels",
  "8824": " weeds",
  "8825": ".'\"",
  "8826": " Taking",
  "8827": " demanding",
  "8828": " meows",
  "8829": " scratching",
  "8830": " untang",
  "8831": " untangl",
  "8832": "Yawn",
  "8833": " awo",
  "8834": " nurses",
  "8835": " whoo",
  "8836": " discussing",
  "8837": " minding",
  "8838": "Lucky",
  "8839": " awoke",
  "8840": " killed",
  "8841": " toolb",
  "8842": "vew",
  "8843": "ivew",
  "8844": "ivewa",
  "8845": "iveway",
  "8846": "riveway",
  "8847": " driveway",
  "8848": " Col",
  "8849": " becomes",
  "8850": " Eliza",
  "8851": " dragonf",
  "8852": " dragonfl",
  "8853": " Despit",
  "8854": " Despite",
  "8855": " Sadie",
  "8856": " bol",
  "8857": " cotto",
  "8858": " haird",
  "8859": " toolbo",
  "8860": " toolbox",
  "8861": " posit",
  "8862": " attack",
  "8863": " bounces",
  "8864": " scampered",
  "8865": " sprays",
  "8866": " supplied",
  "8867": " collapse",
  "8868": " friendships",
  "8869": " suggestion",
  "8870": " Smoke",
  "8871": " closing",
  "8872": " slapping",
  "8873": " anticipatio",
  "8874": " anticipation",
  "8875": " belongings",
  "8876": " invites",
  "8877": "Hmm",
  "8878": " Stan",
  "8879": "uet",
  "8880": " Cle",
  "8881": " Excit",
  "8882": " rays",
  "8883": " twists",
  "8884": "gives",
  "8885": "rgives",
  "8886": " forgives",
  "8887": " cotton",
  "8888": " models",
  "8889": " mommie",
  "8890": " massages",
  "8891": "humming",
  "8892": " humming",
  "8893": " newf",
  "8894": " newfo",
  "8895": " newfound",
  "8896": " responde",
  "8897": " responded",
  "8898": " Excite",
  "8899": " Shelly",
  "8900": " expecting",
  "8901": " ghosts",
  "8902": " Muffi",
  "8903": " cheated",
  "8904": " Wooly",
  "8905": " Day",
  "8906": "ricycle",
  "8907": " tricycle",
  "8908": " altho",
  "8909": " althoug",
  "8910": " although",
  "8911": " Ala",
  "8912": " presente",
  "8913": " untangle",
  "8914": "gum",
  "8915": " cond",
  "8916": " mommies",
  "8917": " rowe",
  "8918": " carries",
  "8919": " invitations",
  "8920": "Charlo",
  "8921": "Charlot",
  "8922": " refreshing",
  "8923": " Jod",
  "8924": " cheris",
  "8925": " drow",
  "8926": " presented",
  "8927": " Bumpy",
  "8928": " Glo",
  "8929": " rowed",
  "8930": " twent",
  "8931": " twenty",
  "8932": "Caro",
  "8933": " meaning",
  "8934": " Alt",
  "8935": " foxe",
  "8936": " foxes",
  "8937": "Charlott",
  "8938": "Charlotte",
  "8939": " playda",
  "8940": "nso",
  "8941": " heartb",
  "8942": " marshmallows",
  "8943": " playdat",
  "8944": " playdate",
  "8945": " Zipper",
  "8946": " clicked",
  "8947": " Viv",
  "8948": " beaver",
  "8949": " designing",
  "8950": "idie",
  "8951": " tidie",
  "8952": " Hallo",
  "8953": " Hallow",
  "8954": " Hallowe",
  "8955": " Hallowee",
  "8956": " Halloween",
  "8957": " Muffin",
  "8958": " jets",
  "8959": " Im",
  "8960": " Peac",
  "8961": " Whoe",
  "8962": " Whoeve",
  "8963": " Whoever",
  "8964": " mugs",
  "8965": " Altho",
  "8966": " Althoug",
  "8967": " Although",
  "8968": " Gol",
  "8969": " Excited",
  "8970": " Rut",
  "8971": " Ruth",
  "8972": " cora",
  "8973": " coral",
  "8974": " glimmer",
  "8975": " picnics",
  "8976": " Tam",
  "8977": " od",
  "8978": " oppos",
  "8979": " Maddie",
  "8980": " questione",
  "8981": " scoops",
  "8982": " \u00e2\u0080\u0094",
  "8983": " aliens",
  "8984": " congratulat",
  "8985": " opposit",
  "8986": " questioned",
  "8987": " tests",
  "8988": " lump",
  "8989": " strips",
  "8990": " opposite",
  "8991": "Carol",
  "8992": " Us",
  "8993": " defea",
  "8994": " defeat",
  "8995": " yummies",
  "8996": "Trust",
  "8997": " Bubba",
  "8998": " decl",
  "8999": " deta",
  "9000": " coac",
  "9001": " fights",
  "9002": " Biggy",
  "9003": " ouch",
  "9004": " affo",
  "9005": " afford",
  "9006": " blad",
  "9007": " encountered",
  "9008": " grandf",
  "9009": " grandfa",
  "9010": " grandfat",
  "9011": " grandfathe",
  "9012": " ket",
  "9013": " awful",
  "9014": " bride",
  "9015": " grandfather",
  "9016": " rout",
  "9017": " raising",
  "9018": " Vivi",
  "9019": " upside",
  "9020": " Rit",
  "9021": " Rita",
  "9022": " calml",
  "9023": " calmly",
  "9024": " flashed",
  "9025": " groa",
  "9026": "eanwhile",
  "9027": "Meanwhile",
  "9028": " squirt",
  "9029": " yawning",
  "9030": " Jol",
  "9031": " Samantha",
  "9032": " buddy",
  "9033": " crystals",
  "9034": " buckled",
  "9035": " cupcakes",
  "9036": "urda",
  "9037": "urday",
  "9038": " blade",
  "9039": "Ove",
  "9040": " conside",
  "9041": " defi",
  "9042": " defin",
  "9043": " definit",
  "9044": " caw",
  "9045": " weapons",
  "9046": " Saturday",
  "9047": " packages",
  "9048": " attem",
  "9049": " attemp",
  "9050": " attempt",
  "9051": " goodbyes",
  "9052": " messes",
  "9053": " sacks",
  "9054": " Dott",
  "9055": " Mina",
  "9056": " Pigg",
  "9057": " caps",
  "9058": " court",
  "9059": "Tree",
  "9060": "uffle",
  "9061": " enemie",
  "9062": " enemies",
  "9063": " scent",
  "9064": " coach",
  "9065": " yummiest",
  "9066": "quet",
  "9067": " bles",
  "9068": " bless",
  "9069": " returning",
  "9070": " Mega",
  "9071": " Megan",
  "9072": " Softy",
  "9073": " admiration",
  "9074": "Yel",
  "9075": "Yell",
  "9076": " Louise",
  "9077": " spro",
  "9078": " sprout",
  "9079": "Since",
  "9080": " Ano",
  "9081": " Anot",
  "9082": " Anothe",
  "9083": " Another",
  "9084": " Playing",
  "9085": "unab",
  "9086": " unab",
  "9087": " unabl",
  "9088": " unable",
  "9089": " faint",
  "9090": " trott",
  "9091": " brightes",
  "9092": " brightest",
  "9093": " freezing",
  "9094": " sadder",
  "9095": " Wol",
  "9096": " Oh",
  "9097": " cosy",
  "9098": " response",
  "9099": " Yawn",
  "9100": " Gray",
  "9101": " diamonds",
  "9102": " whispering",
  "9103": "resha",
  "9104": "reshad",
  "9105": "reshado",
  "9106": "reshadow",
  "9107": " opport",
  "9108": " opportu",
  "9109": " opportun",
  "9110": " opportunit",
  "9111": " decla",
  "9112": " prevente",
  "9113": " prevented",
  "9114": " stretches",
  "9115": "nstalk",
  "9116": " Rel",
  "9117": " Vick",
  "9118": " whoe",
  "9119": " whoeve",
  "9120": " whoever",
  "9121": " journeys",
  "9122": " sincere",
  "9123": " definite",
  "9124": " dragonfly",
  "9125": " odd",
  "9126": " traps",
  "9127": " spices",
  "9128": " stuffing",
  "9129": "undo",
  "9130": " Joll",
  "9131": " beanstalk",
  "9132": " Nurse",
  "9133": " Maisy",
  "9134": " automobiles",
  "9135": " beetles",
  "9136": " definitel",
  "9137": " definitely",
  "9138": " exami",
  "9139": " examining",
  "9140": "gume",
  "9141": "gument",
  "9142": "rgument",
  "9143": " argument",
  "9144": " stall",
  "9145": " visitors",
  "9146": "Cic",
  "9147": "Cici",
  "9148": " offering",
  "9149": " pounce",
  "9150": " washes",
  "9151": " cheape",
  "9152": " Cam",
  "9153": " customer",
  "9154": " topp",
  "9155": " wiser",
  "9156": " Jolly",
  "9157": " Sofia",
  "9158": " commu",
  "9159": " commun",
  "9160": "nsa",
  "9161": "uquet",
  "9162": " bouquet",
  "9163": " Patt",
  "9164": " campf",
  "9165": " campfi",
  "9166": " decoration",
  "9167": " hairdress",
  "9168": " hairdresse",
  "9169": " fant",
  "9170": " fanta",
  "9171": " fantas",
  "9172": " honesty",
  "9173": ",'",
  "9174": " Set",
  "9175": " bom",
  "9176": " bomb",
  "9177": " Nutt",
  "9178": " welcoming",
  "9179": " Fel",
  "9180": " Hell",
  "9181": " Hello",
  "9182": " Jax",
  "9183": " congratulate",
  "9184": " occa",
  "9185": " occas",
  "9186": " inspired",
  "9187": " loudes",
  "9188": " loudest",
  "9189": "rugs",
  "9190": " howl",
  "9191": " parte",
  "9192": " parted",
  "9193": " troubles",
  "9194": " Nutty",
  "9195": " Shark",
  "9196": "Cap",
  "9197": "ubbly",
  "9198": " Ricky",
  "9199": " Thunder",
  "9200": " campfire",
  "9201": " whales",
  "9202": " Never",
  "9203": " Kell",
  "9204": " Sup",
  "9205": " declared",
  "9206": " Missile",
  "9207": " Quacky",
  "9208": " beaks",
  "9209": " Cook",
  "9210": " cleared",
  "9211": "Careful",
  "9212": "ufus",
  "9213": " cowboys",
  "9214": " Dotty",
  "9215": " nuzzled",
  "9216": " patche",
  "9217": " excha",
  "9218": " exchang",
  "9219": " strolle",
  "9220": " warml",
  "9221": " warmly",
  "9222": " customers",
  "9223": " obeye",
  "9224": " obeyed",
  "9225": " comforting",
  "9226": "Over",
  "9227": "Should",
  "9228": "rens",
  "9229": "irens",
  "9230": " sirens",
  "9231": " Bingo",
  "9232": " shooe",
  "9233": " Kev",
  "9234": " Magic",
  "9235": " Vicky",
  "9236": " amuse",
  "9237": " practis",
  "9238": " rely",
  "9239": " spoiling",
  "9240": "Nora",
  "9241": " undo",
  "9242": " bends",
  "9243": " cleans",
  "9244": " fantast",
  "9245": " fantastic",
  "9246": " insisting",
  "9247": " owns",
  "9248": " hairdresser",
  "9249": " choppe",
  "9250": " pipes",
  "9251": " poses",
  "9252": " shares",
  "9253": " supporting",
  "9254": "urrendered",
  "9255": " surrendered",
  "9256": " Dra",
  "9257": " moons",
  "9258": " proc",
  "9259": " chopped",
  "9260": " Danie",
  "9261": " Daniel",
  "9262": " prickl",
  "9263": " Jet",
  "9264": " Wor",
  "9265": " Wolf",
  "9266": " beaming",
  "9267": " cutte",
  "9268": " snowy",
  "9269": " thanking",
  "9270": " squishe",
  "9271": " Nell",
  "9272": " Rat",
  "9273": " glide",
  "9274": " scurry",
  "9275": " Os",
  "9276": " Piggy",
  "9277": " ass",
  "9278": " Kevi",
  "9279": " Kevin",
  "9280": " dollar",
  "9281": "ironm",
  "9282": "ironme",
  "9283": "ironment",
  "9284": "undl",
  "9285": "vironment",
  "9286": "nvironment",
  "9287": " environment",
  "9288": " Ott",
  "9289": " loca",
  "9290": " plugg",
  "9291": " Patty",
  "9292": " Mothe",
  "9293": " Mother",
  "9294": " Zack",
  "9295": " classm",
  "9296": " classma",
  "9297": " classmat",
  "9298": " classmate",
  "9299": "viding",
  "9300": " examp",
  "9301": " exampl",
  "9302": " example",
  "9303": "Suzy",
  "9304": " Ty",
  "9305": " exchange",
  "9306": " shooed",
  "9307": " shorts",
  "9308": " Swe",
  "9309": " ill",
  "9310": " Mopp",
  "9311": " hisses",
  "9312": "Lia",
  "9313": " Elsa",
  "9314": " plugge",
  "9315": " plugged",
  "9316": " steering",
  "9317": " whoos",
  "9318": " Ly",
  "9319": " Pick",
  "9320": " brake",
  "9321": " exercises",
  "9322": " visits",
  "9323": "Capt",
  "9324": " cuddles",
  "9325": " dangers",
  "9326": " Ag",
  "9327": " Lot",
  "9328": " Work",
  "9329": " squished",
  "9330": "unfortunately",
  "9331": " unfortunately",
  "9332": " distra",
  "9333": "Capta",
  "9334": "Captai",
  "9335": "Captain",
  "9336": "ribbit",
  "9337": " Light",
  "9338": " applauding",
  "9339": " gratitude",
  "9340": " ting",
  "9341": " Moppy",
  "9342": " providing",
  "9343": " Boa",
  "9344": " Hea",
  "9345": " tickles",
  "9346": " Elsie",
  "9347": " badger",
  "9348": " convinced",
  "9349": " dial",
  "9350": " foa",
  "9351": " storms",
  "9352": "ipmu",
  "9353": "hipmu",
  "9354": "hipmun",
  "9355": "hipmunk",
  "9356": "rime",
  "9357": "unscree",
  "9358": "unscreen",
  "9359": " Joan",
  "9360": " Kelly",
  "9361": " Swee",
  "9362": " choosing",
  "9363": " dat",
  "9364": " Bla",
  "9365": " Start",
  "9366": " activity",
  "9367": " brains",
  "9368": " gesture",
  "9369": " nearest",
  "9370": " younges",
  "9371": " youngest",
  "9372": " arranged",
  "9373": " coughed",
  "9374": " exploded",
  "9375": "Abby",
  "9376": " Matc",
  "9377": "hoy",
  "9378": " Sweet",
  "9379": " aba",
  "9380": " sunscreen",
  "9381": " smok",
  "9382": " Katy",
  "9383": " Tweety",
  "9384": " bond",
  "9385": " peep",
  "9386": " scram",
  "9387": "ilitie",
  "9388": "ilities",
  "9389": " Joke",
  "9390": " annoying",
  "9391": " soapy",
  "9392": " Pine",
  "9393": " affe",
  "9394": " affec",
  "9395": " affect",
  "9396": "ummed",
  "9397": " laces",
  "9398": " rails",
  "9399": " App",
  "9400": " appreciated",
  "9401": " tapping",
  "9402": " tingl",
  "9403": " moat",
  "9404": " congratulated",
  "9405": " detail",
  "9406": " emerged",
  "9407": " heartbro",
  "9408": " heartbroke",
  "9409": " heartbroken",
  "9410": " forme",
  "9411": " scramb",
  "9412": " scrambl",
  "9413": "unching",
  "9414": " cler",
  "9415": " clerk",
  "9416": " crocodiles",
  "9417": " Tel",
  "9418": " distrac",
  "9419": " distract",
  "9420": " thicke",
  "9421": " expressio",
  "9422": " messed",
  "9423": " tops",
  "9424": "Ahoy",
  "9425": " Any",
  "9426": " Jonny",
  "9427": " hooks",
  "9428": " squint",
  "9429": "Yello",
  "9430": " Micros",
  "9431": " Microsc",
  "9432": " Microsco",
  "9433": " Microscop",
  "9434": " Microscope",
  "9435": " Sis",
  "9436": " Squa",
  "9437": " chipmunk",
  "9438": " hove",
  "9439": " manager",
  "9440": " blank",
  "9441": " date",
  "9442": " puck",
  "9443": " trotte",
  "9444": " Baa",
  "9445": " copie",
  "9446": " masterp",
  "9447": " masterpie",
  "9448": " masterpiec",
  "9449": " masterpiece",
  "9450": "Snowy",
  "9451": " Doe",
  "9452": " erasers",
  "9453": " scramble",
  "9454": "Yellow",
  "9455": " Jea",
  "9456": " Tomorrow",
  "9457": " compete",
  "9458": "rdinary",
  "9459": " bis",
  "9460": " common",
  "9461": " digs",
  "9462": " fetche",
  "9463": " foam",
  "9464": " members",
  "9465": " trotted",
  "9466": " cheet",
  "9467": " cheeta",
  "9468": " cheetah",
  "9469": " expert",
  "9470": " kinder",
  "9471": " Snake",
  "9472": " blond",
  "9473": " chews",
  "9474": " particularly",
  "9475": " beas",
  "9476": " beast",
  "9477": " occasio",
  "9478": " rips",
  "9479": " Helping",
  "9480": " Hoppe",
  "9481": " Res",
  "9482": " fait",
  "9483": " faith",
  "9484": "Lizzy",
  "9485": "Candy",
  "9486": " Cici",
  "9487": " observing",
  "9488": " Jumpy",
  "9489": " cheaper",
  "9490": " experienced",
  "9491": " fishes",
  "9492": " jugg",
  "9493": " juggl",
  "9494": "instantly",
  "9495": " instantly",
  "9496": " generos",
  "9497": " generosit",
  "9498": " generosity",
  "9499": " mischievous",
  "9500": " cages",
  "9501": " meowing",
  "9502": " stores",
  "9503": " grandd",
  "9504": " grandda",
  "9505": " mattered",
  "9506": " passes",
  "9507": " sleeps",
  "9508": " teles",
  "9509": " telesc",
  "9510": " telesco",
  "9511": " telescop",
  "9512": " telescope",
  "9513": " limp",
  "9514": " Freddie",
  "9515": " Whee",
  "9516": " gasps",
  "9517": "ordinary",
  "9518": " Ashl",
  "9519": " Momma",
  "9520": " flop",
  "9521": " Hopper",
  "9522": " accomplishe",
  "9523": " accomplished",
  "9524": " grassho",
  "9525": " grasshop",
  "9526": " grasshopp",
  "9527": " grasshoppe",
  "9528": "fill",
  "9529": " mats",
  "9530": " smartes",
  "9531": " smartest",
  "9532": " thump",
  "9533": " syrup",
  "9534": " whined",
  "9535": " Ice",
  "9536": " farmers",
  "9537": " scrambled",
  "9538": " drip",
  "9539": " dock",
  "9540": " More",
  "9541": " attitude",
  "9542": " collapsed",
  "9543": " gardens",
  "9544": " Va",
  "9545": " crop",
  "9546": " discoveries",
  "9547": " experiences",
  "9548": " forests",
  "9549": " styles",
  "9550": " vegg",
  "9551": " veggie",
  "9552": " admit",
  "9553": " medals",
  "9554": " Ashle",
  "9555": " Does",
  "9556": " otters",
  "9557": " types",
  "9558": " woodc",
  "9559": " hardes",
  "9560": " hardest",
  "9561": " snapping",
  "9562": " Beck",
  "9563": " expression",
  "9564": " proce",
  "9565": "ivat",
  "9566": " Monste",
  "9567": " bubbly",
  "9568": " chilly",
  "9569": " Amb",
  "9570": " shimmer",
  "9571": " vests",
  "9572": " Boat",
  "9573": " extraordinary",
  "9574": " scores",
  "9575": " mira",
  "9576": " bluebird",
  "9577": " behaviou",
  "9578": " intent",
  "9579": " ketc",
  "9580": " ketch",
  "9581": " ketchup",
  "9582": " spears",
  "9583": " Berry",
  "9584": " Crabb",
  "9585": " Sca",
  "9586": " Book",
  "9587": " behaviour",
  "9588": " grasshopper",
  "9589": " soone",
  "9590": " sooner",
  "9591": " patches",
  "9592": " Ashley",
  "9593": " afa",
  "9594": " afar",
  "9595": " hab",
  "9596": " habit",
  "9597": " momma",
  "9598": " pokes",
  "9599": " Supe",
  "9600": " thicker",
  "9601": "Sna",
  "9602": " ick",
  "9603": " Terry",
  "9604": " classmates",
  "9605": " icky",
  "9606": " slithered",
  "9607": " squeezes",
  "9608": "Coa",
  "9609": "ieves",
  "9610": "hieves",
  "9611": "ili",
  "9612": " glittering",
  "9613": " prickly",
  "9614": " announced",
  "9615": " peaco",
  "9616": " peacoc",
  "9617": " peacock",
  "9618": " Tamm",
  "9619": "htim",
  "9620": "htime",
  "9621": "nchtime",
  "9622": "unchtime",
  "9623": " Acho",
  "9624": " Achoo",
  "9625": " Cally",
  "9626": " costs",
  "9627": " Ken",
  "9628": " discourage",
  "9629": " luckie",
  "9630": " thieves",
  "9631": " waterm",
  "9632": " waterme",
  "9633": " watermel",
  "9634": " watermelo",
  "9635": " zigzags",
  "9636": " Tell",
  "9637": " Zog",
  "9638": " acts",
  "9639": " hood",
  "9640": " jumper",
  "9641": " skirts",
  "9642": " Cloud",
  "9643": " Swim",
  "9644": " elec",
  "9645": " elect",
  "9646": " wolves",
  "9647": " Step",
  "9648": " cocoo",
  "9649": " squeaky",
  "9650": "Cas",
  "9651": "ounce",
  "9652": " Becky",
  "9653": " Super",
  "9654": " boards",
  "9655": " woodcut",
  "9656": " woodcutt",
  "9657": "Cars",
  "9658": "inations",
  "9659": " Jaso",
  "9660": " Jason",
  "9661": " cheating",
  "9662": " woodcutte",
  "9663": " rak",
  "9664": " raking",
  "9665": " trading",
  "9666": " Eric",
  "9667": " explaining",
  "9668": " lunchtime",
  "9669": " bisc",
  "9670": " biscu",
  "9671": " biscuit",
  "9672": " luckily",
  "9673": " tidied",
  "9674": " Puffy",
  "9675": "Cut",
  "9676": " spilling",
  "9677": "Bubble",
  "9678": " Mine",
  "9679": " Rog",
  "9680": " hatch",
  "9681": " Animal",
  "9682": " Maddy",
  "9683": " Use",
  "9684": " desserts",
  "9685": "Hoo",
  "9686": " concer",
  "9687": " heave",
  "9688": " Still",
  "9689": " Tra",
  "9690": " cooperate",
  "9691": "ural",
  "9692": "\u00e2\u0080\u00a6",
  "9693": " Bert",
  "9694": " Rainbow",
  "9695": " Roge",
  "9696": " messages",
  "9697": " mirac",
  "9698": " Captain",
  "9699": " Andre",
  "9700": " Gilly",
  "9701": " Tammy",
  "9702": " beating",
  "9703": " gal",
  "9704": " windowsill",
  "9705": " Roa",
  "9706": " captu",
  "9707": " croak",
  "9708": " seeking",
  "9709": " Lina",
  "9710": " acto",
  "9711": "icia",
  "9712": " Willia",
  "9713": " William",
  "9714": " Patie",
  "9715": " snarl",
  "9716": "Bounce",
  "9717": " das",
  "9718": " foreshadow",
  "9719": " leans",
  "9720": " papa",
  "9721": "ivate",
  "9722": " Bon",
  "9723": " Frankie",
  "9724": " Monster",
  "9725": " cloths",
  "9726": " flashing",
  "9727": " hissing",
  "9728": " shallo",
  "9729": " shallow",
  "9730": " watermelon",
  "9731": " Waf",
  "9732": " Waff",
  "9733": " Waffl",
  "9734": " Waffle",
  "9735": " discouraged",
  "9736": " positi",
  "9737": " positive",
  "9738": " winding",
  "9739": " cocoon",
  "9740": " dripped",
  "9741": " forts",
  "9742": " overw",
  "9743": " woodcutter",
  "9744": " disagreeing",
  "9745": " pressing",
  "9746": " teap",
  "9747": " teapo",
  "9748": " teapot",
  "9749": "Cob",
  "9750": " gul",
  "9751": " glimmering",
  "9752": " mille",
  "9753": " tidying",
  "9754": " trusts",
  "9755": " veggies",
  "9756": " Annab",
  "9757": " Annabe",
  "9758": " Annabel",
  "9759": " Sit",
  "9760": " Math",
  "9761": " Peep",
  "9762": " landing",
  "9763": " tempte",
  "9764": " tempted",
  "9765": " unwrapp",
  "9766": " Jean",
  "9767": " groo",
  "9768": " formed",
  "9769": " Pret",
  "9770": " flopp",
  "9771": " Pebb",
  "9772": " cops",
  "9773": " electr",
  "9774": " apology",
  "9775": "Num",
  "9776": "Numb",
  "9777": "Numbe",
  "9778": " Sas",
  "9779": " Tooth",
  "9780": " sleds",
  "9781": " worst",
  "9782": " comets",
  "9783": " grad",
  "9784": " Butte",
  "9785": " Carol",
  "9786": " Jelly",
  "9787": " asto",
  "9788": " officers",
  "9789": " situations",
  "9790": "icit",
  "9791": "icity",
  "9792": " Charlotte",
  "9793": " Roger",
  "9794": " fogg",
  "9795": " glis",
  "9796": " glist",
  "9797": " gliste",
  "9798": " melod",
  "9799": " dirtie",
  "9800": " weake",
  "9801": " Tyl",
  "9802": " Tyle",
  "9803": " miller",
  "9804": " pizzas",
  "9805": " scurrying",
  "9806": " structures",
  "9807": "umma",
  "9808": " 4",
  "9809": " Hurry",
  "9810": " ribbit",
  "9811": " Ambe",
  "9812": " Amber",
  "9813": " Mac",
  "9814": " foggy",
  "9815": " granddaughter",
  "9816": " overwhe",
  "9817": " overwhel",
  "9818": " overwhelm",
  "9819": " Bust",
  "9820": " Boom",
  "9821": " Janey",
  "9822": " deserved",
  "9823": "Coal",
  "9824": " Yummy",
  "9825": " Buste",
  "9826": " Buster",
  "9827": " Mixie",
  "9828": " Sasha",
  "9829": " Spidey",
  "9830": " opportunity",
  "9831": " Gold",
  "9832": " Was",
  "9833": " differences",
  "9834": " snorte",
  "9835": " snorted",
  "9836": " twit",
  "9837": " uncove",
  "9838": " quacking",
  "9839": " Birds",
  "9840": " gulp",
  "9841": " levers",
  "9842": " speake",
  "9843": " underw",
  "9844": " Tyler",
  "9845": " Cell",
  "9846": " Felix",
  "9847": " Rufus",
  "9848": " seagulls",
  "9849": " posse",
  "9850": " posses",
  "9851": " possess",
  "9852": " shortc",
  "9853": " roam",
  "9854": "?\u00e2\u0080\u009d.",
  "9855": "Ora",
  "9856": "Orang",
  "9857": "Orange",
  "9858": " disappointm",
  "9859": " disappointme",
  "9860": " disappointment",
  "9861": " sneaks",
  "9862": " speaks",
  "9863": " Stea",
  "9864": " artw",
  "9865": " artwo",
  "9866": " artwor",
  "9867": " artwork",
  "9868": " binoc",
  "9869": " Mae",
  "9870": " answering",
  "9871": " pound",
  "9872": " scow",
  "9873": " scowl",
  "9874": " wildf",
  "9875": "nson",
  "9876": " Clea",
  "9877": " shortcut",
  "9878": "rrest",
  "9879": " applause",
  "9880": " sipped",
  "9881": " topping",
  "9882": " arrest",
  "9883": " keyho",
  "9884": " keyhol",
  "9885": " keyhole",
  "9886": " Amand",
  "9887": " Amanda",
  "9888": " Gus",
  "9889": " amused",
  "9890": " scul",
  "9891": " sculp",
  "9892": " sculpt",
  "9893": " unwrappe",
  "9894": " unwrapped",
  "9895": " Butter",
  "9896": " peppero",
  "9897": " pepperon",
  "9898": " pepperoni",
  "9899": " repeats",
  "9900": " Reb",
  "9901": " Rebe",
  "9902": " checko",
  "9903": " checkout",
  "9904": " spook",
  "9905": " paddling",
  "9906": " puppets",
  "9907": " visitor",
  "9908": " Brian",
  "9909": " attacked",
  "9910": " croaked",
  "9911": " local",
  "9912": " Otto",
  "9913": " spooky",
  "9914": " Acc",
  "9915": " Clos",
  "9916": " beautifull",
  "9917": " beautifully",
  "9918": " groane",
  "9919": " groaned",
  "9920": " prod",
  "9921": " squawk",
  "9922": " wildfl",
  "9923": " wildflo",
  "9924": " wildflow",
  "9925": " wildflowe",
  "9926": "nvent",
  "9927": " checking",
  "9928": " swimsuits",
  "9929": " waters",
  "9930": " Yellow",
  "9931": " Appl",
  "9932": " Sli",
  "9933": " Slin",
  "9934": " Slink",
  "9935": " Slinky",
  "9936": " Isa",
  "9937": " cheerfull",
  "9938": " frustratio",
  "9939": " groom",
  "9940": " overhe",
  "9941": " overhea",
  "9942": "invent",
  "9943": " invent",
  "9944": " exams",
  "9945": " nets",
  "9946": " sharpe",
  "9947": " Rebec",
  "9948": " Rebecc",
  "9949": " Rebecca",
  "9950": " drying",
  "9951": " Auntie",
  "9952": "hrugs",
  "9953": " shrugs",
  "9954": " Cars",
  "9955": " Ky",
  "9956": " Since",
  "9957": " cheerfully",
  "9958": " heels",
  "9959": " mayo",
  "9960": " shoots",
  "9961": " shyl",
  "9962": " shyly",
  "9963": " sobbing",
  "9964": " squashe",
  "9965": "Ava",
  "9966": " Pene",
  "9967": "Shoo",
  "9968": " Close",
  "9969": " hangs",
  "9970": " mend",
  "9971": " whimpered",
  "9972": "icie",
  "9973": " explora",
  "9974": " explorat",
  "9975": " exploratio",
[...]
